/* Copyright 2018 The TensorFlow Authors. All Rights Reserved.

Licensed under the Apache License, Version 2.0 (the "License");
you may not use this file except in compliance with the License.
You may obtain a copy of the License at

    http://www.apache.org/licenses/LICENSE-2.0

Unless required by applicable law or agreed to in writing, software
distributed under the License is distributed on an "AS IS" BASIS,
WITHOUT WARRANTIES OR CONDITIONS OF ANY KIND, either express or implied.
See the License for the specific language governing permissions and
limitations under the License.
==============================================================================*/

// Automatically created from a TensorFlow Lite flatbuffer using the command:
// xxd -i tiny_conv.tflite > tiny_conv_simple_features_model_data.cc
// See the README for a full description of the creation process.

#include "tiny_conv_micro_features_model_data.h"

// We need to keep the data array aligned on some architectures.
#ifdef __has_attribute
#define HAVE_ATTRIBUTE(x) __has_attribute(x)
#else
#define HAVE_ATTRIBUTE(x) 0
#endif
#if HAVE_ATTRIBUTE(aligned) || (defined(__GNUC__) && !defined(__clang__))
#define DATA_ALIGN_ATTRIBUTE __attribute__((aligned(4)))
#else
#define DATA_ALIGN_ATTRIBUTE
#endif

/*
const unsigned char
    g_tiny_conv_micro_features_model_data[] DATA_ALIGN_ATTRIBUTE = {
        0x18, 0x00, 0x00, 0x00, 0x54, 0x46, 0x4c, 0x33, 0x00, 0x00, 0x0e, 0x00,
        0x18, 0x00, 0x04, 0x00, 0x08, 0x00, 0x0c, 0x00, 0x10, 0x00, 0x14, 0x00,
        0x0e, 0x00, 0x00, 0x00, 0x03, 0x00, 0x00, 0x00, 0xd0, 0x46, 0x00, 0x00,
        0x0c, 0x00, 0x00, 0x00, 0x10, 0x00, 0x00, 0x00, 0x20, 0x00, 0x00, 0x00,
        0x01, 0x00, 0x00, 0x00, 0xb4, 0x41, 0x00, 0x00, 0x0f, 0x00, 0x00, 0x00,
        0x54, 0x4f, 0x43, 0x4f, 0x20, 0x43, 0x6f, 0x6e, 0x76, 0x65, 0x72, 0x74,
        0x65, 0x64, 0x2e, 0x00, 0x09, 0x00, 0x00, 0x00, 0x94, 0x41, 0x00, 0x00,
        0x74, 0x41, 0x00, 0x00, 0x44, 0x41, 0x00, 0x00, 0xb4, 0x3e, 0x00, 0x00,
        0xac, 0x3e, 0x00, 0x00, 0xa4, 0x3e, 0x00, 0x00, 0x14, 0x00, 0x00, 0x00,
        0x0c, 0x00, 0x00, 0x00, 0x04, 0x00, 0x00, 0x00, 0xf0, 0xb9, 0xff, 0xff,
        0xf4, 0xb9, 0xff, 0xff, 0x52, 0xba, 0xff, 0xff, 0x04, 0x00, 0x00, 0x00,
        0x80, 0x3e, 0x00, 0x00, 0x68, 0x95, 0x91, 0x7d, 0x9b, 0x85, 0x85, 0x81,
        0x77, 0x85, 0x99, 0x89, 0x7e, 0x8a, 0x85, 0x92, 0xa5, 0x7e, 0x93, 0x97,
        0x97, 0x91, 0xa3, 0x97, 0x88, 0x8b, 0xa6, 0x71, 0x77, 0x85, 0x95, 0x86,
        0x6b, 0x93, 0xcb, 0x96, 0x7a, 0x9a, 0x7f, 0x85, 0x7a, 0x8e, 0xac, 0x98,
        0x6d, 0x9d, 0x9b, 0x70, 0x9a, 0x90, 0xba, 0x99, 0x7b, 0x93, 0x6e, 0x68,
        0x75, 0x86, 0xc4, 0x8b, 0x66, 0x5d, 0x96, 0x7f, 0x92, 0x91, 0xb6, 0x7b,
        0x96, 0x95, 0x9a, 0x77, 0x9a, 0x96, 0xce, 0x80, 0x88, 0x65, 0x8e, 0x80,
        0x88, 0x85, 0xb7, 0x9c, 0x7b, 0x93, 0x9d, 0x95, 0x83, 0x92, 0xd0, 0x7e,
        0x68, 0x88, 0x6c, 0x78, 0x98, 0x81, 0xac, 0x95, 0x9e, 0x98, 0xa2, 0x99,
        0x8d, 0x7d, 0xb8, 0x81, 0x6e, 0x68, 0xa1, 0x81, 0x9d, 0x99, 0xb4, 0x7d,
        0x92, 0x86, 0x9d, 0x93, 0xa3, 0xb0, 0xd6, 0x79, 0x93, 0x76, 0x8d, 0x84,
        0x91, 0x9d, 0xbe, 0x94, 0xb0, 0x70, 0x84, 0x80, 0x85, 0x99, 0x9e, 0xa2,
        0x86, 0x8a, 0x7a, 0x76, 0x91, 0x8d, 0xa6, 0x76, 0x8d, 0x82, 0x98, 0x8c,
        0x92, 0x8f, 0x8c, 0xb3, 0x78, 0x75, 0xa5, 0x88, 0x73, 0x8c, 0x91, 0x7c,
        0x82, 0x7d, 0x93, 0x9e, 0x8b, 0x97, 0x7c, 0x90, 0x84, 0x95, 0x7e, 0x9e,
        0xa4, 0x52, 0x8a, 0xb4, 0x97, 0x65, 0x7d, 0xb6, 0x83, 0x7d, 0x99, 0x80,
        0x97, 0x85, 0x96, 0x5f, 0x8e, 0x87, 0x95, 0x6d, 0x76, 0x84, 0x97, 0x8c,
        0x66, 0x97, 0xae, 0x6b, 0x93, 0xb3, 0xa8, 0x8b, 0xa1, 0x79, 0xa3, 0x94,
        0x7e, 0xa8, 0x8d, 0xad, 0x78, 0x82, 0xa2, 0x7b, 0x90, 0xa4, 0x7d, 0xb3,
        0xa0, 0x7b, 0x94, 0x85, 0x9a, 0x8d, 0x76, 0x82, 0x65, 0x73, 0xab, 0xa4,
        0xaa, 0x74, 0x93, 0x9c, 0x83, 0x66, 0xbf, 0x7a, 0xaa, 0x81, 0x92, 0x89,
        0x7e, 0x88, 0xa6, 0x66, 0xaf, 0x92, 0x9f, 0x97, 0x6c, 0x89, 0x9c, 0x74,
        0x7e, 0x82, 0x8e, 0x88, 0xb2, 0x85, 0xba, 0x96, 0x90, 0x78, 0x8d, 0xa7,
        0x9e, 0x87, 0xbc, 0x7f, 0xb2, 0x8b, 0x77, 0x9b, 0xab, 0x8f, 0xa4, 0x7d,
        0x6f, 0x77, 0x8c, 0x98, 0x6f, 0x89, 0xb1, 0x9f, 0xa7, 0x94, 0x7d, 0xae,
        0x88, 0x8a, 0xa9, 0x75, 0x7d, 0x7c, 0x88, 0x99, 0x90, 0x9d, 0x97, 0xa7,
        0x8d, 0x7f, 0x73, 0xa1, 0xa3, 0x87, 0xa9, 0x92, 0x98, 0x7e, 0x9c, 0x88,
        0x73, 0x6b, 0x78, 0x8e, 0x7d, 0x86, 0x6c, 0x7c, 0x92, 0x40, 0x86, 0xa7,
        0x65, 0x93, 0x67, 0x91, 0x67, 0x71, 0x6c, 0xa8, 0x81, 0x70, 0x8e, 0xa8,
        0x7b, 0x63, 0x89, 0x76, 0x69, 0x90, 0x73, 0x5e, 0x92, 0x78, 0x7e, 0x9d,
        0x87, 0x86, 0x89, 0x64, 0x66, 0xa9, 0x92, 0x8d, 0x72, 0x7c, 0x63, 0x7f,
        0x94, 0x5c, 0x92, 0x89, 0x87, 0x9d, 0x8b, 0x75, 0x93, 0x8c, 0x94, 0x68,
        0x97, 0x87, 0x78, 0x7d, 0x7f, 0x84, 0x84, 0x77, 0x6b, 0x8e, 0x83, 0xab,
        0x7e, 0x62, 0x90, 0x83, 0x8e, 0x71, 0x7e, 0x9b, 0x96, 0x6d, 0x83, 0x6a,
        0x76, 0x68, 0x71, 0x90, 0x98, 0x90, 0x9b, 0x68, 0x89, 0x89, 0x95, 0x85,
        0x6e, 0x75, 0x8e, 0x95, 0x83, 0x7a, 0x91, 0x7f, 0x8b, 0x71, 0x90, 0x7d,
        0xad, 0x91, 0x6f, 0x74, 0x98, 0x8a, 0xb0, 0xa8, 0x80, 0xa3, 0x8e, 0x7c,
        0xa5, 0x67, 0xa4, 0x66, 0xa9, 0x7b, 0x85, 0x9d, 0x88, 0xab, 0x7d, 0x81,
        0x6e, 0x7f, 0x8f, 0x97, 0x97, 0x84, 0x89, 0x74, 0x9d, 0x5f, 0x9c, 0x88,
        0x6f, 0x74, 0x96, 0x9e, 0x7e, 0x7e, 0xa4, 0x85, 0x94, 0x91, 0xaf, 0x99,
        0x7a, 0xaa, 0x8c, 0x92, 0x85, 0x9d, 0x6c, 0x79, 0x57, 0x7a, 0x80, 0x84,
        0x79, 0x79, 0x74, 0xa5, 0x55, 0xab, 0x73, 0x8c, 0x72, 0x9d, 0x72, 0xa9,
        0x90, 0x73, 0x8f, 0xa0, 0x89, 0x6d, 0x68, 0x66, 0x61, 0x6f, 0x57, 0x7d,
        0x66, 0x8c, 0x65, 0x87, 0x62, 0x76, 0x83, 0x77, 0x89, 0xa4, 0x73, 0x89,
        0x7f, 0x70, 0x79, 0x6b, 0x86, 0x6f, 0x8d, 0x96, 0x65, 0x89, 0x66, 0x53,
        0x73, 0xae, 0x6a, 0x72, 0x88, 0x97, 0x7a, 0x7f, 0x5d, 0xa1, 0x86, 0x88,
        0x5f, 0x9f, 0x9b, 0x8a, 0x74, 0x9a, 0x7a, 0x7e, 0x8b, 0x71, 0x58, 0x74,
        0x8f, 0x9b, 0x9b, 0x8d, 0x6b, 0x83, 0x60, 0x7f, 0x75, 0x91, 0x79, 0x93,
        0x7a, 0x92, 0x8c, 0x7e, 0x7a, 0x95, 0x84, 0x69, 0x8f, 0x8c, 0x7c, 0x6e,
        0x8b, 0x87, 0x82, 0x62, 0xa6, 0x97, 0x91, 0x65, 0xa2, 0xa4, 0x9b, 0x8b,
        0x85, 0xa4, 0x84, 0x7b, 0x67, 0x93, 0x96, 0x84, 0x85, 0x75, 0x6d, 0x9e,
        0x80, 0x80, 0x73, 0x8c, 0x81, 0x70, 0x8a, 0x68, 0x9c, 0x8e, 0x63, 0x91,
        0x89, 0x79, 0x8d, 0x79, 0xa4, 0x9a, 0x96, 0xa0, 0x83, 0x63, 0x88, 0x8f,
        0x76, 0xb4, 0xa8, 0x8e, 0x68, 0x8d, 0x8e, 0x95, 0x78, 0xae, 0x5d, 0x89,
        0x66, 0x7e, 0x7b, 0x8a, 0x75, 0x86, 0x71, 0x97, 0x6d, 0xb3, 0x67, 0x76,
        0x82, 0x7d, 0x70, 0x79, 0x8a, 0x9c, 0x82, 0xa7, 0x82, 0xab, 0x58, 0x86,
        0x5c, 0x70, 0x8c, 0x71, 0x61, 0xa6, 0x74, 0xa8, 0x65, 0x78, 0x72, 0x9d,
        0x6c, 0x92, 0x70, 0x88, 0x88, 0x79, 0x96, 0x6f, 0x68, 0xa4, 0x7a, 0x7b,
        0x96, 0xac, 0x6d, 0x76, 0x6a, 0xab, 0x82, 0x7d, 0x71, 0x8d, 0x6b, 0x81,
        0x6c, 0x9d, 0x71, 0x59, 0x5c, 0x71, 0x77, 0x6d, 0x6a, 0x96, 0x76, 0x69,
        0x80, 0x83, 0x88, 0x70, 0x97, 0xb4, 0x8a, 0x6c, 0xa5, 0x6e, 0x64, 0x75,
        0x73, 0xa2, 0x7f, 0x97, 0x9e, 0x75, 0x8f, 0x86, 0x68, 0xbb, 0x6b, 0x86,
        0x8d, 0x80, 0x8e, 0x58, 0x6d, 0xb2, 0x76, 0x99, 0x8f, 0x70, 0x6c, 0x86,
        0x78, 0x9e, 0x91, 0x90, 0xa2, 0x7c, 0x8c, 0x81, 0x80, 0xb4, 0x77, 0x7a,
        0x8c, 0x5f, 0x85, 0x56, 0x7a, 0x93, 0x6b, 0x5c, 0x74, 0x59, 0x7e, 0x86,
        0x8c, 0xae, 0x76, 0x7d, 0x76, 0x7e, 0x81, 0x5f, 0x81, 0x8e, 0x7b, 0x90,
        0xaa, 0x99, 0x79, 0x89, 0x93, 0xbc, 0x86, 0x91, 0xa2, 0x88, 0x79, 0x82,
        0x80, 0xb6, 0x4a, 0x93, 0x7b, 0x89, 0x75, 0x8d, 0x7a, 0x8d, 0x66, 0x7c,
        0x81, 0x9f, 0x6e, 0x86, 0x4d, 0x82, 0x66, 0x88, 0x73, 0x89, 0x7d, 0xac,
        0x89, 0x9f, 0x58, 0x7f, 0x6b, 0x8c, 0x6a, 0x82, 0x59, 0xb8, 0x83, 0x67,
        0x8b, 0x8a, 0x84, 0x7b, 0x7f, 0xb5, 0x44, 0x57, 0x5a, 0x73, 0x8b, 0x6d,
        0x7c, 0x9e, 0x71, 0x72, 0x8d, 0x93, 0x80, 0x60, 0x7f, 0xc5, 0x69, 0x5c,
        0x67, 0x92, 0x6c, 0x75, 0x66, 0x8f, 0x91, 0x5a, 0x6c, 0x70, 0x90, 0x84,
        0x88, 0xab, 0x90, 0x66, 0x9c, 0x64, 0x6e, 0x68, 0x92, 0x9e, 0x89, 0x8d,
        0x82, 0x97, 0x77, 0x75, 0x7f, 0xa7, 0x91, 0x75, 0x8c, 0x89, 0xa4, 0x6b,
        0x98, 0x99, 0x80, 0x7d, 0x6b, 0x7f, 0x7d, 0x88, 0x79, 0xa1, 0x87, 0x90,
        0x81, 0x8e, 0x94, 0x96, 0x7d, 0xa8, 0x86, 0x84, 0x86, 0x79, 0x97, 0x6e,
        0xaa, 0x95, 0x8a, 0x9f, 0x8c, 0x72, 0x99, 0x77, 0x81, 0x94, 0x91, 0x9f,
        0x6e, 0x67, 0x87, 0x70, 0x7d, 0xad, 0x58, 0x7f, 0x6d, 0x96, 0x8e, 0x82,
        0x7d, 0xa6, 0x77, 0x99, 0x87, 0x95, 0x89, 0x7e, 0xa6, 0x9e, 0x86, 0xac,
        0x78, 0x9f, 0x9b, 0x85, 0x76, 0x99, 0x6a, 0x92, 0x66, 0x7b, 0x9a, 0x99,
        0x83, 0x8b, 0x57, 0x65, 0x75, 0x9f, 0xa6, 0x8a, 0x8d, 0x96, 0x6f, 0x80,
        0x65, 0x8f, 0x80, 0x9f, 0x82, 0x85, 0x55, 0x75, 0x5c, 0x84, 0x91, 0x86,
        0x76, 0x96, 0x5a, 0x6c, 0x62, 0x7b, 0x92, 0x88, 0x61, 0xca, 0x75, 0x66,
        0x70, 0x70, 0x8e, 0x7a, 0x75, 0xb2, 0x66, 0x81, 0x5b, 0x79, 0x92, 0x97,
        0x94, 0xaf, 0x72, 0x8a, 0x9b, 0x5f, 0x65, 0x96, 0x81, 0xb6, 0x8a, 0x6f,
        0x94, 0x7a, 0x96, 0x92, 0x79, 0x94, 0x8e, 0x53, 0x9a, 0x73, 0x6a, 0x9d,
        0xa1, 0xa3, 0xa4, 0x8f, 0x6b, 0xa4, 0x8b, 0x82, 0x96, 0xb1, 0x8c, 0x92,
        0x7f, 0x91, 0x5f, 0x98, 0x8a, 0xa4, 0x7e, 0x80, 0x97, 0x86, 0x86, 0x86,
        0x8f, 0xa6, 0x77, 0x9a, 0x82, 0x80, 0x6e, 0x73, 0x83, 0xaf, 0x87, 0x6d,
        0x77, 0x9a, 0x83, 0x9f, 0x7c, 0xa4, 0x71, 0x6f, 0x7d, 0x75, 0x9d, 0x82,
        0x83, 0xaf, 0x85, 0x80, 0x8d, 0x7f, 0xa4, 0xa2, 0x88, 0xba, 0x76, 0x76,
        0x94, 0x6b, 0x76, 0x83, 0x77, 0x96, 0x78, 0x8c, 0xb0, 0x8e, 0x83, 0x87,
        0xa0, 0xcc, 0x7f, 0xa4, 0x8c, 0x77, 0x84, 0x8c, 0x80, 0xa0, 0x57, 0x76,
        0x76, 0x71, 0x86, 0x9c, 0x7f, 0x88, 0x57, 0x95, 0x4d, 0x8c, 0x7f, 0x80,
        0x66, 0x9e, 0x42, 0x8d, 0x6a, 0x8e, 0x8c, 0x80, 0x89, 0x9d, 0x4f, 0x83,
        0x54, 0x8a, 0x5e, 0x64, 0x70, 0x94, 0x78, 0x90, 0x7d, 0x78, 0x8d, 0x71,
        0x56, 0x9a, 0x8c, 0x65, 0x8b, 0x62, 0x88, 0x9a, 0x6c, 0x8e, 0x7b, 0x78,
        0x68, 0x86, 0x64, 0x6b, 0x67, 0xaa, 0x8c, 0x7b, 0x67, 0x75, 0x58, 0x7e,
        0x6b, 0x97, 0x92, 0x87, 0x9c, 0x79, 0x71, 0x76, 0x7d, 0xbb, 0x89, 0x75,
        0x83, 0x57, 0x74, 0x98, 0xa1, 0x8f, 0xb0, 0x89, 0x76, 0x88, 0x69, 0x9c,
        0x74, 0xb0, 0x86, 0x9c, 0x79, 0x6f, 0x84, 0x70, 0x94, 0xa1, 0x6e, 0x7a,
        0xa3, 0x88, 0xa0, 0x7a, 0x94, 0xa1, 0x82, 0x93, 0x99, 0x95, 0x7f, 0xab,
        0x97, 0x9d, 0x6e, 0x68, 0x79, 0x73, 0x76, 0x83, 0x76, 0xbd, 0x87, 0x87,
        0x86, 0x74, 0x8f, 0x6e, 0x65, 0xba, 0x6a, 0x78, 0x91, 0x62, 0x72, 0x67,
        0x75, 0xbd, 0x8c, 0x5e, 0x85, 0x6d, 0x72, 0x85, 0x7d, 0x96, 0x8f, 0xb9,
        0x9f, 0x97, 0xa2, 0x8a, 0xa1, 0xc1, 0x8d, 0xbc, 0x85, 0x78, 0x93, 0x97,
        0x99, 0x9f, 0x3a, 0x98, 0x65, 0x8d, 0x6a, 0x6c, 0x92, 0x85, 0x49, 0x7e,
        0x6a, 0xaa, 0x8a, 0x94, 0x6b, 0x93, 0x40, 0x8a, 0x8c, 0x9c, 0x6f, 0xad,
        0x72, 0xb0, 0x58, 0x88, 0x60, 0x8c, 0x86, 0x84, 0x74, 0x96, 0x8f, 0x97,
        0x5e, 0x6c, 0x79, 0x92, 0x51, 0xa8, 0x92, 0x58, 0x62, 0x6f, 0x6c, 0x76,
        0x5f, 0x9e, 0x86, 0x71, 0x9c, 0x69, 0x7e, 0x80, 0x8a, 0x97, 0x6f, 0x79,
        0x8b, 0x6f, 0x6c, 0x88, 0x73, 0x9c, 0x6d, 0x91, 0x77, 0x73, 0x7f, 0x97,
        0x86, 0xa9, 0xac, 0x71, 0x82, 0x90, 0x83, 0x8a, 0x80, 0x9d, 0xa8, 0x85,
        0x78, 0x7f, 0x94, 0x99, 0x8e, 0xa3, 0x89, 0x70, 0x87, 0x62, 0x82, 0x87,
        0x8c, 0x98, 0x7a, 0x88, 0x72, 0x7e, 0x78, 0xa0, 0x78, 0x95, 0x97, 0x8f,
        0x7b, 0x7c, 0x83, 0x94, 0x93, 0xa7, 0x77, 0x97, 0x90, 0x5e, 0x76, 0x7c,
        0x68, 0xaa, 0x69, 0x67, 0x76, 0x84, 0x7e, 0x64, 0xa3, 0xbe, 0x7e, 0x8b,
        0x82, 0x50, 0x8a, 0x82, 0x89, 0xc0, 0x79, 0x78, 0x68, 0x7c, 0x6b, 0x77,
        0x82, 0x99, 0x7b, 0x83, 0x80, 0x90, 0x96, 0x96, 0x87, 0xb7, 0xa5, 0x94,
        0x82, 0x99, 0x95, 0x91, 0x7e, 0xa2, 0x49, 0x95, 0x6d, 0x8e, 0xa9, 0x89,
        0x8e, 0x8f, 0x3d, 0x95, 0x6a, 0x8c, 0x8b, 0x8c, 0x7e, 0x88, 0x63, 0x94,
        0x69, 0x94, 0x88, 0x92, 0x79, 0xa7, 0x68, 0x60, 0x76, 0x85, 0xa1, 0x6f,
        0x54, 0x96, 0x63, 0x7a, 0x5c, 0x73, 0x74, 0x6e, 0x53, 0x99, 0x69, 0x76,
        0x69, 0x57, 0x6a, 0x82, 0x55, 0x93, 0x82, 0x80, 0x65, 0x7f, 0x7b, 0x76,
        0x72, 0x87, 0x8d, 0x97, 0x98, 0x78, 0x7e, 0x6d, 0x7a, 0x95, 0x78, 0x70,
        0x90, 0x83, 0x89, 0x80, 0x7f, 0x9d, 0x73, 0x73, 0x84, 0x77, 0x8e, 0x77,
        0x8e, 0x75, 0x9e, 0xa5, 0x86, 0x68, 0x89, 0x7d, 0x8d, 0x99, 0x79, 0x8f,
        0x8e, 0x87, 0x87, 0x97, 0x8c, 0x91, 0xa1, 0x96, 0x83, 0x73, 0x87, 0xa9,
        0x8c, 0xa6, 0x85, 0x8c, 0x96, 0x7d, 0x7f, 0x8e, 0x7e, 0xb0, 0x85, 0x8f,
        0x7f, 0x7d, 0x95, 0x7d, 0x9c, 0xb3, 0x71, 0x86, 0x81, 0x69, 0x7b, 0x69,
        0x76, 0xb6, 0x5d, 0x67, 0x8a, 0x68, 0x9c, 0xa6, 0x70, 0xbf, 0x79, 0x60,
        0x8b, 0x7f, 0x7a, 0x7b, 0x8b, 0xaf, 0x8c, 0xa1, 0x86, 0x92, 0x76, 0x8d,
        0x89, 0xa2, 0xa8, 0xa3, 0xa0, 0xa2, 0x96, 0x9d, 0x7c, 0x92, 0x3f, 0x9b,
        0x6d, 0x8a, 0x80, 0x81, 0xa0, 0x92, 0x50, 0x7c, 0x82, 0x99, 0x80, 0xa6,
        0x8e, 0x8d, 0x4f, 0x8d, 0x65, 0x71, 0x77, 0x81, 0x51, 0xa6, 0x3f, 0x5c,
        0x63, 0x6f, 0x61, 0x93, 0x5c, 0xaa, 0x77, 0x8f, 0x5d, 0x53, 0x79, 0x74,
        0x6b, 0x94, 0x86, 0x81, 0x85, 0x48, 0x81, 0x80, 0x6b, 0x85, 0x6c, 0x91,
        0x92, 0x6a, 0x74, 0x78, 0x72, 0x87, 0x6c, 0x82, 0x88, 0x7b, 0x93, 0x71,
        0x91, 0x8d, 0x67, 0x83, 0x86, 0x5b, 0x86, 0x79, 0x81, 0x9f, 0x95, 0x8a,
        0x70, 0x66, 0x9e, 0x6b, 0x72, 0x98, 0x97, 0x95, 0x72, 0x93, 0x84, 0x92,
        0x8c, 0x96, 0xa2, 0x65, 0x80, 0x75, 0xa2, 0xa7, 0x7d, 0x97, 0x71, 0x8f,
        0x69, 0x65, 0x8f, 0xae, 0x9c, 0x97, 0x5d, 0xb3, 0x98, 0x83, 0x98, 0xa0,
        0x5f, 0x7e, 0x7a, 0x7a, 0x87, 0x7c, 0x92, 0xa0, 0x81, 0xa6, 0x71, 0x8e,
        0x88, 0x52, 0xa3, 0x88, 0x6a, 0x9d, 0x84, 0x82, 0x7c, 0x78, 0x9f, 0x92,
        0x66, 0xa4, 0x53, 0x6a, 0x7e, 0x84, 0x60, 0x84, 0x92, 0xb0, 0x93, 0x9d,
        0xa0, 0x5f, 0x95, 0x8c, 0x77, 0xa1, 0x8c, 0x90, 0xa0, 0x9c, 0x9a, 0x95,
        0x85, 0xa1, 0x22, 0x8f, 0x57, 0x80, 0x96, 0x7d, 0x92, 0x8b, 0x41, 0xa6,
        0x61, 0xa2, 0x6f, 0x80, 0x5d, 0x91, 0x66, 0xab, 0x6d, 0x7e, 0x88, 0x93,
        0x5c, 0xa5, 0x75, 0x6e, 0x6c, 0x86, 0x69, 0x73, 0x4e, 0x8e, 0x77, 0x6b,
        0x6c, 0x60, 0x67, 0x91, 0x75, 0x91, 0x6c, 0x7c, 0x53, 0x6e, 0x75, 0x8e,
        0x79, 0x8c, 0x8b, 0x74, 0x6b, 0x57, 0x71, 0xa1, 0x7f, 0x83, 0x6c, 0x6b,
        0x93, 0x99, 0x7a, 0x78, 0x71, 0x8c, 0x78, 0x88, 0x9f, 0x85, 0x77, 0x7b,
        0x86, 0x85, 0xa1, 0x61, 0x78, 0x65, 0x61, 0x75, 0x82, 0x7d, 0xa9, 0xa2,
        0x84, 0x82, 0x94, 0x95, 0x90, 0x9f, 0x83, 0x97, 0x76, 0x95, 0x8a, 0x83,
        0x9b, 0x87, 0x8b, 0x7a, 0x6c, 0x6e, 0x75, 0x95, 0x85, 0x95, 0x84, 0x9e,
        0x96, 0x74, 0x7d, 0xa5, 0x85, 0x8e, 0x7e, 0x73, 0x85, 0x8d, 0x87, 0x80,
        0x8a, 0x96, 0x65, 0x87, 0x7c, 0x73, 0x80, 0x96, 0x73, 0x8d, 0x5e, 0x79,
        0x7e, 0x8d, 0x79, 0x85, 0x63, 0xa0, 0x62, 0x89, 0x9d, 0x8c, 0x74, 0x7b,
        0x9c, 0xa5, 0x71, 0x8c, 0x83, 0x91, 0x8e, 0x8d, 0x89, 0x8b, 0x8b, 0xa4,
        0x78, 0x88, 0x9e, 0x85, 0x8b, 0x94, 0x38, 0x84, 0x7b, 0x86, 0x7d, 0xa2,
        0x73, 0x8f, 0x47, 0x7b, 0x69, 0xb4, 0x85, 0x71, 0x61, 0x9d, 0x59, 0x95,
        0x74, 0x93, 0x6a, 0x88, 0x62, 0xa2, 0x56, 0x93, 0x8d, 0x68, 0x7e, 0x80,
        0x6b, 0xb7, 0x63, 0x90, 0x5d, 0x54, 0x6c, 0x90, 0x5a, 0x8e, 0x7e, 0x7d,
        0x82, 0x73, 0x7f, 0x89, 0x94, 0x8e, 0x7a, 0x70, 0x6c, 0x79, 0x88, 0x88,
        0x9b, 0x8b, 0x70, 0x81, 0x83, 0x83, 0x8b, 0x86, 0x64, 0x93, 0x82, 0x66,
        0x66, 0x79, 0x74, 0x91, 0x92, 0x94, 0x7c, 0x87, 0x72, 0x79, 0x8d, 0xaa,
        0xa2, 0x9e, 0xaf, 0x95, 0xb1, 0x8a, 0x95, 0x8b, 0x94, 0x7e, 0x79, 0x8e,
        0x99, 0x98, 0x97, 0x9e, 0x94, 0x87, 0x74, 0x72, 0x63, 0x92, 0x92, 0x95,
        0xb0, 0x94, 0x86, 0x91, 0x77, 0x8f, 0x91, 0x7e, 0x83, 0x88, 0x90, 0xa5,
        0x79, 0x70, 0x85, 0x8f, 0x67, 0x90, 0x98, 0x8d, 0x8a, 0x5d, 0x8c, 0x9c,
        0x94, 0x91, 0x80, 0x95, 0x6e, 0x95, 0x73, 0x8d, 0x63, 0x8e, 0x53, 0x8a,
        0x77, 0x88, 0x8f, 0x6f, 0x87, 0x9e, 0x8b, 0xb7, 0x99, 0xb2, 0x85, 0x82,
        0xa1, 0x89, 0x9b, 0xa7, 0x80, 0x81, 0xa0, 0x8e, 0x84, 0xa9, 0x27, 0x73,
        0x5e, 0x85, 0x5f, 0x92, 0x8c, 0xa2, 0x34, 0x8e, 0x6e, 0xb2, 0x7b, 0x8c,
        0x69, 0x93, 0x47, 0x9e, 0x58, 0x7e, 0x94, 0x86, 0x47, 0xa3, 0x53, 0x6b,
        0x6e, 0x6a, 0x7f, 0x73, 0x5b, 0x8c, 0x7a, 0x99, 0x6c, 0x5d, 0x82, 0x82,
        0x62, 0x8a, 0x7a, 0x8e, 0x88, 0x62, 0xa0, 0x8e, 0x5c, 0x9a, 0x72, 0x79,
        0x66, 0x6b, 0x75, 0x78, 0x82, 0x8a, 0x59, 0x91, 0x93, 0x68, 0x78, 0xb4,
        0x86, 0x7e, 0x8c, 0x6e, 0x88, 0x7f, 0x96, 0x8e, 0x6e, 0x8b, 0x8c, 0x73,
        0xab, 0x79, 0x88, 0xa6, 0x86, 0x81, 0x9a, 0x80, 0x9a, 0x9e, 0x8b, 0x6d,
        0x9a, 0x70, 0x8e, 0x8a, 0x84, 0x7a, 0xaf, 0xb8, 0x9e, 0x90, 0x89, 0xb3,
        0x9b, 0x85, 0x94, 0xb6, 0x87, 0x8c, 0x6e, 0xa3, 0xac, 0x9e, 0x8c, 0x7c,
        0x81, 0x83, 0x70, 0x8d, 0x7c, 0x81, 0x77, 0x82, 0x69, 0x8e, 0x5e, 0x80,
        0x8a, 0x8e, 0x7c, 0x8a, 0x89, 0x90, 0x58, 0x59, 0x85, 0x88, 0x7a, 0x86,
        0x73, 0x9c, 0x4a, 0x81, 0x8d, 0x89, 0x91, 0x95, 0x72, 0x83, 0x9d, 0x99,
        0x8d, 0x6b, 0x95, 0x7e, 0x70, 0x94, 0x8c, 0x9f, 0x8a, 0x8f, 0xa7, 0x84,
        0x87, 0xb6, 0x42, 0x81, 0x63, 0x8a, 0x79, 0x77, 0x74, 0x90, 0x23, 0x85,
        0x74, 0x8f, 0x87, 0x80, 0x50, 0xa1, 0x4d, 0x9b, 0x55, 0x82, 0x74, 0x8e,
        0x4a, 0xa7, 0x52, 0x4d, 0x77, 0x67, 0x77, 0x9e, 0x62, 0xa5, 0x7d, 0x96,
        0x6f, 0x45, 0x80, 0x8c, 0x6c, 0x92, 0x99, 0x6f, 0x5d, 0x56, 0x93, 0xac,
        0x94, 0x9c, 0x95, 0x92, 0x6e, 0x71, 0x87, 0x8c, 0x7b, 0xa9, 0x7f, 0x7a,
        0x69, 0x6b, 0x7d, 0x90, 0x6f, 0x81, 0x9f, 0x80, 0x83, 0x67, 0x78, 0x85,
        0x85, 0x91, 0x8a, 0x80, 0xaa, 0x86, 0x8c, 0x88, 0x8c, 0x8f, 0x9b, 0x85,
        0x8b, 0x7e, 0x83, 0x82, 0x95, 0x75, 0x6b, 0x8f, 0x85, 0x8b, 0xb0, 0x9f,
        0xa7, 0x8e, 0x61, 0x9d, 0x72, 0xac, 0x92, 0x87, 0x94, 0x96, 0x68, 0x8f,
        0x63, 0x85, 0x9c, 0xa8, 0x82, 0x9b, 0x85, 0x9b, 0x6b, 0x72, 0x83, 0x85,
        0x90, 0x87, 0x74, 0xa4, 0x88, 0x57, 0x63, 0x90, 0x8e, 0x7b, 0x80, 0x81,
        0x94, 0x74, 0x68, 0x8a, 0x7f, 0x86, 0x78, 0x72, 0x75, 0x67, 0x7a, 0x8a,
        0x7a, 0x74, 0x8c, 0xad, 0x75, 0xa2, 0x7d, 0x9a, 0x9e, 0x83, 0x92, 0xa2,
        0xa3, 0x98, 0xa5, 0x91, 0x84, 0xb0, 0x21, 0x9a, 0x5f, 0x8c, 0x7e, 0x86,
        0x80, 0xa0, 0x16, 0x9b, 0x5b, 0x9c, 0x76, 0x8d, 0x77, 0x9f, 0x62, 0x86,
        0x6a, 0x6c, 0x6e, 0x8f, 0x4e, 0xc1, 0x61, 0x6f, 0x74, 0x79, 0x80, 0x5f,
        0x59, 0x9e, 0x7c, 0x87, 0x7f, 0x4b, 0x6c, 0x8b, 0x5a, 0x8f, 0x65, 0x8a,
        0x62, 0x58, 0x66, 0x8d, 0x83, 0x97, 0x8a, 0x7a, 0x77, 0x79, 0x6c, 0x83,
        0x8c, 0x93, 0x82, 0x5e, 0x61, 0x8c, 0x82, 0x80, 0x88, 0x88, 0x85, 0x87,
        0x77, 0x70, 0x8d, 0x7f, 0x7a, 0x89, 0x72, 0x7e, 0xa3, 0x99, 0x6b, 0xaa,
        0x81, 0x87, 0x90, 0x6f, 0x7f, 0x77, 0x96, 0x83, 0x89, 0x89, 0x6a, 0x77,
        0xa4, 0x6c, 0x97, 0x7e, 0x95, 0xa4, 0x63, 0x8d, 0x71, 0x96, 0x8a, 0xa4,
        0x9f, 0x7c, 0x54, 0x94, 0x7a, 0x89, 0x8a, 0x90, 0x7e, 0x9d, 0x53, 0x7c,
        0x9d, 0x83, 0x90, 0x84, 0xa1, 0x8e, 0x80, 0x74, 0x69, 0x7a, 0x69, 0x93,
        0x8a, 0x90, 0x83, 0x76, 0x8b, 0x6f, 0x8e, 0x93, 0x82, 0x84, 0x7d, 0x94,
        0xa1, 0x78, 0x7d, 0x68, 0x79, 0x83, 0x85, 0x9d, 0x89, 0xa0, 0x8a, 0x93,
        0x90, 0x8c, 0x82, 0x86, 0x80, 0x71, 0xb3, 0xa1, 0x90, 0xb2, 0x27, 0xa3,
        0x5e, 0xa3, 0xa6, 0x64, 0x75, 0xa0, 0x23, 0x8c, 0x7c, 0xc4, 0x7a, 0x8c,
        0x4d, 0xa3, 0x4c, 0x93, 0x71, 0x7b, 0x71, 0x8b, 0x34, 0xa5, 0x47, 0x7f,
        0x4e, 0x73, 0x51, 0x8a, 0x67, 0xa0, 0x9d, 0x7f, 0x65, 0x38, 0x61, 0x70,
        0x71, 0x8d, 0x6a, 0x7e, 0x7e, 0x4c, 0x7d, 0x8d, 0x81, 0x80, 0xa5, 0x84,
        0x6f, 0x57, 0x70, 0x91, 0x8b, 0x99, 0x9d, 0x84, 0x77, 0x7f, 0x6b, 0x7f,
        0x76, 0x8f, 0x90, 0x72, 0x6c, 0x58, 0x6b, 0x85, 0xa6, 0x8a, 0xa2, 0x6d,
        0x8a, 0x71, 0x71, 0x95, 0x92, 0x7c, 0x88, 0x67, 0x86, 0x6d, 0x8d, 0x95,
        0x79, 0x8e, 0x65, 0x71, 0x71, 0x91, 0x85, 0x99, 0xa9, 0x87, 0x80, 0x88,
        0x74, 0x86, 0x75, 0x83, 0x8b, 0x7f, 0x78, 0xb1, 0x90, 0xa8, 0x7b, 0x98,
        0x8a, 0x7b, 0x5b, 0x99, 0x6f, 0x7f, 0xa0, 0x79, 0xa5, 0x93, 0x8b, 0x7b,
        0x7e, 0x7a, 0x61, 0x9d, 0x98, 0x8b, 0x82, 0x7c, 0x76, 0x73, 0x81, 0x8a,
        0x7e, 0x8d, 0x6e, 0x71, 0xa0, 0x65, 0x80, 0x62, 0x7d, 0x8d, 0x5e, 0x9b,
        0x8f, 0x85, 0x89, 0xad, 0x71, 0x73, 0x7f, 0x89, 0x8d, 0x89, 0xb3, 0xa1,
        0x7c, 0xaf, 0x43, 0x82, 0x49, 0x92, 0x62, 0x7f, 0x79, 0xa6, 0x23, 0x99,
        0x6c, 0x9a, 0x8a, 0x90, 0x6c, 0xb9, 0x6f, 0x8a, 0x61, 0x7f, 0x8f, 0x8a,
        0x57, 0xb9, 0x55, 0x65, 0x4b, 0x51, 0x66, 0x6e, 0x4a, 0xa1, 0x83, 0x8a,
        0x73, 0x23, 0x8a, 0x6d, 0x46, 0xa7, 0x87, 0x64, 0x84, 0x5f, 0x6f, 0x6f,
        0x9b, 0x9d, 0x76, 0x83, 0x60, 0x6e, 0x76, 0x8a, 0x9a, 0xa6, 0x75, 0x73,
        0x86, 0x5b, 0x97, 0x88, 0x7b, 0x8e, 0x82, 0x5c, 0x97, 0x71, 0x74, 0x85,
        0x83, 0x91, 0x89, 0x6f, 0x93, 0x94, 0x8b, 0xa9, 0x7d, 0x84, 0x80, 0x89,
        0x97, 0x80, 0x65, 0x92, 0x9a, 0x85, 0x5a, 0x6a, 0x6b, 0x58, 0x6f, 0x8c,
        0x9a, 0x8b, 0x6e, 0x81, 0x9d, 0xae, 0x8c, 0x86, 0x8d, 0x90, 0x6c, 0xb8,
        0x91, 0x89, 0x98, 0xbd, 0x8b, 0x78, 0x7d, 0x87, 0x9c, 0x72, 0x73, 0x80,
        0x9e, 0x92, 0x5d, 0x77, 0x78, 0x4f, 0x87, 0x7b, 0x7a, 0x9e, 0x74, 0x67,
        0x6a, 0x58, 0x95, 0x80, 0x75, 0x97, 0x81, 0x75, 0x94, 0x75, 0x73, 0x92,
        0x83, 0x7b, 0x6b, 0x8e, 0x82, 0x6e, 0x7d, 0x9b, 0x91, 0x7f, 0x9e, 0xaa,
        0x8c, 0xa3, 0xa8, 0x8c, 0x9a, 0xc1, 0x28, 0xac, 0x49, 0x9b, 0x59, 0x8a,
        0x60, 0xa7, 0x39, 0xa7, 0x75, 0x9b, 0x95, 0x94, 0x76, 0xb3, 0x4a, 0x6b,
        0x60, 0x6c, 0xa5, 0x71, 0x40, 0xc4, 0x4c, 0x7c, 0x76, 0x7b, 0x67, 0x76,
        0x76, 0xa4, 0x7b, 0x83, 0x67, 0x4d, 0x87, 0x87, 0x6e, 0x93, 0x84, 0x70,
        0x78, 0x41, 0x87, 0x9f, 0x7a, 0x8c, 0x87, 0x69, 0x73, 0x6c, 0x93, 0x73,
        0x77, 0xa2, 0x52, 0x72, 0x5c, 0x75, 0x6c, 0x8f, 0x65, 0x92, 0x87, 0x52,
        0x67, 0x54, 0x54, 0x75, 0x90, 0x9c, 0x91, 0x6f, 0xa3, 0x86, 0x87, 0x9c,
        0x99, 0x86, 0x9f, 0x71, 0x8a, 0x7a, 0x7a, 0x97, 0x7a, 0x86, 0x6c, 0x99,
        0x89, 0x7e, 0x9c, 0x83, 0x98, 0x78, 0x73, 0x7f, 0x91, 0x96, 0x9a, 0x8d,
        0xb0, 0x9e, 0x6a, 0x80, 0x92, 0x86, 0x95, 0x83, 0x94, 0x92, 0x6f, 0x86,
        0x8a, 0x52, 0x6e, 0x82, 0x84, 0x8b, 0x77, 0x88, 0x70, 0x54, 0x8f, 0x7f,
        0x7d, 0x7e, 0x57, 0x89, 0x6d, 0x6f, 0x9c, 0x93, 0x90, 0x93, 0x52, 0x70,
        0x75, 0x92, 0x73, 0x88, 0x93, 0x77, 0x77, 0x91, 0x89, 0xa2, 0x9d, 0xa6,
        0xae, 0x84, 0x7d, 0xab, 0x92, 0x7e, 0x9c, 0x98, 0x7b, 0xc3, 0x38, 0x98,
        0x4f, 0x97, 0x8f, 0x93, 0x62, 0xb8, 0x23, 0xa4, 0x6d, 0x9c, 0x81, 0x8e,
        0x6f, 0x9d, 0x56, 0x89, 0x50, 0x94, 0x70, 0x77, 0x5d, 0xb7, 0x60, 0x5b,
        0x72, 0x45, 0x81, 0x8c, 0x66, 0xbc, 0x8f, 0x7f, 0x57, 0x43, 0x85, 0x96,
        0x5a, 0xb2, 0x91, 0x7d, 0x6c, 0x3a, 0x73, 0x92, 0x63, 0x93, 0x89, 0x90,
        0x7f, 0x52, 0x7f, 0x7b, 0xa1, 0xa6, 0x8f, 0x60, 0x78, 0x51, 0x5f, 0xac,
        0x7b, 0x89, 0x88, 0x97, 0x7e, 0x64, 0x57, 0x72, 0x6c, 0x96, 0x74, 0x78,
        0xab, 0x66, 0x62, 0x8d, 0x6f, 0x86, 0x91, 0x93, 0x7d, 0x74, 0x82, 0x80,
        0x73, 0x84, 0x9c, 0x8e, 0x68, 0x69, 0x9e, 0xa1, 0x8a, 0x83, 0x7a, 0x87,
        0x94, 0x8c, 0x83, 0x7e, 0x91, 0x92, 0x82, 0x7b, 0xa0, 0x8e, 0x73, 0x86,
        0xa9, 0x95, 0x7c, 0xa5, 0x6c, 0x6f, 0x8c, 0x87, 0xa6, 0x8a, 0x77, 0x86,
        0x7d, 0x79, 0x89, 0x75, 0x8f, 0x82, 0x54, 0x61, 0x82, 0x8e, 0x80, 0x84,
        0x7b, 0x8e, 0x61, 0x82, 0x86, 0x77, 0x7d, 0x7c, 0x7e, 0x6c, 0x7b, 0xad,
        0x7b, 0x90, 0x88, 0x80, 0x64, 0x83, 0x7e, 0xa7, 0x83, 0x7e, 0xb5, 0xbb,
        0x88, 0xd9, 0x21, 0x9a, 0x4d, 0x9f, 0x91, 0x97, 0x64, 0xb5, 0x1c, 0x8a,
        0x5f, 0xaf, 0x7e, 0x7b, 0x67, 0xad, 0x48, 0x7f, 0x4e, 0x87, 0x8f, 0x7c,
        0x46, 0xab, 0x70, 0x7f, 0x4b, 0x4e, 0x48, 0x8c, 0x63, 0xc5, 0xa2, 0x7f,
        0x68, 0x3b, 0x59, 0x7f, 0x53, 0xa1, 0x8e, 0x6e, 0x7a, 0x4a, 0x5f, 0x62,
        0x5b, 0xa1, 0x62, 0x78, 0x74, 0x57, 0x78, 0x91, 0x7b, 0x9b, 0x75, 0x73,
        0x73, 0x72, 0x94, 0x92, 0x79, 0xaa, 0x94, 0x75, 0x86, 0x58, 0x8c, 0x71,
        0x77, 0x91, 0xa5, 0x74, 0x8f, 0x73, 0x89, 0x77, 0x68, 0x8e, 0x90, 0x96,
        0x9f, 0x79, 0x77, 0x7d, 0x89, 0x9b, 0x8c, 0x94, 0x81, 0x88, 0x91, 0x8f,
        0x9b, 0x91, 0x78, 0x87, 0x82, 0x72, 0xa7, 0xa2, 0x85, 0x98, 0xa3, 0x91,
        0x83, 0x75, 0x72, 0x93, 0x80, 0x8f, 0x85, 0x70, 0x97, 0x58, 0x9f, 0x72,
        0x91, 0x8e, 0x93, 0x74, 0x97, 0x73, 0x74, 0x91, 0x80, 0x84, 0x96, 0x94,
        0x76, 0x69, 0x66, 0x9e, 0x81, 0x8a, 0x8b, 0x63, 0x65, 0x7c, 0xa1, 0x9a,
        0x72, 0x84, 0x9e, 0x89, 0x9a, 0x86, 0x98, 0x7f, 0x77, 0x85, 0x82, 0xaa,
        0xa3, 0x88, 0xac, 0x9e, 0x76, 0xca, 0x2b, 0xa0, 0x40, 0xad, 0x6f, 0x6c,
        0x66, 0xc8, 0x07, 0x9e, 0x3e, 0x9f, 0x85, 0x9f, 0x5e, 0xb7, 0x53, 0x91,
        0x56, 0x6d, 0x62, 0x95, 0x4c, 0xc7, 0x46, 0x56, 0x4b, 0x5d, 0x6f, 0x52,
        0x4d, 0xa3, 0x8c, 0x90, 0x78, 0x4d, 0x58, 0x8d, 0x53, 0x93, 0x8e, 0x68,
        0x6f, 0x3b, 0x49, 0x86, 0x6e, 0x9d, 0x76, 0x74, 0x5b, 0x44, 0x7b, 0x8c,
        0x89, 0xb0, 0x64, 0x62, 0x6a, 0x6d, 0x7a, 0xae, 0x84, 0x95, 0x8c, 0x71,
        0x8b, 0x60, 0x82, 0x9e, 0x8c, 0xa8, 0x90, 0x66, 0xa1, 0x7b, 0x65, 0x82,
        0x8f, 0x7d, 0x8d, 0x78, 0x8e, 0x5f, 0x75, 0x88, 0x5d, 0x93, 0xa1, 0x93,
        0x6b, 0x67, 0x7a, 0xa7, 0x92, 0x8c, 0x65, 0x88, 0x95, 0x93, 0x87, 0x81,
        0x9c, 0x97, 0x62, 0x9d, 0x90, 0x62, 0xa1, 0x9f, 0x87, 0x94, 0x94, 0x99,
        0x92, 0x8f, 0x71, 0x80, 0x77, 0x82, 0x92, 0x78, 0x67, 0x69, 0x7e, 0x81,
        0x93, 0x89, 0x80, 0x9b, 0x71, 0x57, 0x63, 0x83, 0x7b, 0x9f, 0x5d, 0x92,
        0x85, 0x96, 0x7e, 0x92, 0x84, 0x7f, 0x81, 0xa3, 0xa8, 0x96, 0x91, 0x8e,
        0x8c, 0x8e, 0x7d, 0xb0, 0x86, 0x72, 0x9d, 0x8e, 0x8e, 0xd0, 0x05, 0x77,
        0x45, 0xad, 0x91, 0x95, 0x71, 0xb8, 0x01, 0x9a, 0x41, 0xb8, 0x94, 0x6e,
        0x63, 0xd3, 0x58, 0x8c, 0x5a, 0x89, 0x85, 0x83, 0x52, 0xc1, 0x7b, 0x6a,
        0x65, 0x6e, 0x73, 0x63, 0x68, 0xba, 0x67, 0x78, 0x79, 0x4a, 0x73, 0x8f,
        0x51, 0xc9, 0x85, 0x8a, 0x6b, 0x45, 0x6a, 0x8f, 0x6c, 0xad, 0x8a, 0x8d,
        0x6a, 0x6e, 0x6b, 0x7f, 0x86, 0xb4, 0x88, 0x7d, 0xaa, 0x71, 0x5c, 0x69,
        0x5d, 0xa8, 0x62, 0x7d, 0x6c, 0x6e, 0x6f, 0x6a, 0x7c, 0x9d, 0x7a, 0x83,
        0x7d, 0x79, 0x7b, 0x9c, 0x73, 0x93, 0x7f, 0x9d, 0x8c, 0x75, 0x78, 0x83,
        0x85, 0x88, 0x81, 0x81, 0x98, 0x79, 0xa3, 0xae, 0x5b, 0x90, 0x89, 0x9d,
        0x6d, 0x90, 0xa3, 0x8e, 0x87, 0x96, 0x60, 0xa7, 0x76, 0x82, 0x81, 0x84,
        0x84, 0x9c, 0x73, 0x8a, 0x6c, 0x58, 0x64, 0x96, 0x89, 0x8b, 0x76, 0x60,
        0x91, 0x72, 0x7f, 0x86, 0x9a, 0x89, 0x67, 0x7d, 0x77, 0x84, 0x73, 0x5c,
        0x67, 0x8a, 0x82, 0x8c, 0x8c, 0x94, 0x8a, 0xa2, 0xaa, 0x7e, 0x5f, 0x7f,
        0x86, 0x90, 0x96, 0xab, 0x8d, 0x91, 0x7c, 0xb6, 0x82, 0x8d, 0xb8, 0xa9,
        0x92, 0xea, 0x1b, 0x74, 0x25, 0xab, 0x8d, 0x61, 0x81, 0xd8, 0x2c, 0x86,
        0x2f, 0xcf, 0xa2, 0x84, 0x7f, 0xa4, 0x36, 0x86, 0x47, 0x8d, 0x60, 0x8a,
        0x62, 0xb1, 0x4a, 0x54, 0x48, 0x73, 0x64, 0x9d, 0x72, 0xb2, 0x76, 0x4c,
        0x8e, 0x4e, 0x76, 0x94, 0x7c, 0xad, 0x74, 0x6c, 0x6c, 0x54, 0x7f, 0x63,
        0x97, 0xb3, 0x74, 0x6c, 0x99, 0x5f, 0x86, 0x6a, 0xa3, 0x94, 0x7c, 0x83,
        0x8d, 0x81, 0x79, 0xac, 0x61, 0x9b, 0x65, 0x7b, 0x66, 0x89, 0x60, 0x76,
        0x8d, 0x93, 0x8d, 0x84, 0x71, 0x65, 0x82, 0x8c, 0x94, 0xa7, 0x59, 0xa1,
        0x8b, 0x72, 0x84, 0x65, 0x75, 0x95, 0x62, 0x71, 0x71, 0x7e, 0x7b, 0x97,
        0x9b, 0x9a, 0x80, 0xb1, 0x77, 0x7a, 0x73, 0x8e, 0x9c, 0x8c, 0x7d, 0x96,
        0x89, 0x7d, 0x7e, 0x80, 0x8e, 0x93, 0x63, 0x72, 0x6b, 0x57, 0x78, 0x8f,
        0x90, 0x86, 0x62, 0x75, 0x7e, 0x54, 0x7d, 0x95, 0x85, 0x84, 0x73, 0x7b,
        0x8f, 0x9e, 0x72, 0x8c, 0x90, 0x96, 0x8e, 0x6c, 0x80, 0x8b, 0x9e, 0x8c,
        0x87, 0x8e, 0x9b, 0x97, 0x8f, 0x94, 0xa3, 0x6b, 0xad, 0x93, 0x8a, 0x96,
        0x8d, 0x91, 0xa6, 0x8a, 0x9e, 0xce, 0x6b, 0x98, 0x6d, 0xa9, 0x92, 0x92,
        0x7c, 0xe2, 0x63, 0x97, 0x42, 0xc8, 0xa3, 0xa0, 0x88, 0xdc, 0x75, 0x9b,
        0x51, 0x7d, 0x5c, 0x80, 0x89, 0xc0, 0x83, 0x5e, 0x5e, 0xa4, 0x3e, 0x74,
        0x9b, 0xb6, 0x7f, 0x63, 0x78, 0x7d, 0x74, 0x57, 0x93, 0xa2, 0x83, 0x70,
        0x5e, 0x7d, 0x60, 0x69, 0x93, 0x9e, 0x79, 0x86, 0x91, 0x67, 0x86, 0x95,
        0xa2, 0xad, 0x62, 0x74, 0x68, 0x7e, 0x7e, 0x82, 0x8c, 0xb0, 0xa0, 0x63,
        0x8b, 0x82, 0x8f, 0x8c, 0xa4, 0xa3, 0x76, 0x6c, 0x8e, 0x87, 0x72, 0x85,
        0xaa, 0xa4, 0x7f, 0x7b, 0x8e, 0x9a, 0x69, 0x91, 0x9d, 0xa0, 0x81, 0x92,
        0x90, 0x85, 0x66, 0x82, 0xa3, 0xa9, 0x7f, 0x8f, 0x83, 0x9d, 0x8b, 0x8d,
        0x96, 0xa3, 0x8f, 0x7a, 0x6d, 0x89, 0x74, 0x8a, 0xa9, 0xa9, 0x7b, 0x77,
        0x93, 0x8b, 0x63, 0x92, 0x99, 0x8b, 0x88, 0x4f, 0x87, 0x7c, 0x67, 0x78,
        0x83, 0xa5, 0xa5, 0x58, 0x8d, 0x70, 0x86, 0x82, 0x9e, 0xa7, 0xa5, 0x96,
        0x8d, 0x7b, 0x96, 0x8c, 0x95, 0xa3, 0x8d, 0x9c, 0x92, 0x95, 0x98, 0x94,
        0x87, 0x90, 0x92, 0x92, 0x95, 0x96, 0xad, 0x6e, 0x97, 0x8c, 0x92, 0x7f,
        0x95, 0x8b, 0x8a, 0x90, 0x9b, 0x87, 0x9e, 0x86, 0x91, 0xa0, 0x68, 0x82,
        0x85, 0x8e, 0x82, 0xa8, 0x9f, 0x68, 0x87, 0x75, 0x9b, 0x70, 0x95, 0x91,
        0x6c, 0x77, 0x8b, 0x7b, 0x95, 0x80, 0x99, 0x65, 0x95, 0x82, 0x92, 0x9a,
        0x8a, 0x65, 0x70, 0x8c, 0x98, 0x9e, 0x80, 0x7b, 0xa5, 0x9b, 0x93, 0x94,
        0x84, 0x6a, 0x69, 0x82, 0x80, 0x7a, 0x75, 0x72, 0x94, 0x79, 0xad, 0xb2,
        0x81, 0x8b, 0x85, 0x6c, 0x86, 0x88, 0x9e, 0x79, 0x86, 0x9e, 0x7e, 0x91,
        0x7b, 0x6d, 0x93, 0x91, 0x82, 0x97, 0x6b, 0xa6, 0xaa, 0x9f, 0xa8, 0x74,
        0x94, 0x7f, 0x63, 0x98, 0x90, 0xa1, 0x8c, 0x7f, 0x71, 0x86, 0x89, 0x95,
        0x88, 0x80, 0x77, 0x67, 0x85, 0x7d, 0x89, 0x6d, 0x9c, 0x76, 0x72, 0x8d,
        0x96, 0x94, 0x88, 0x98, 0x9f, 0x94, 0x8e, 0x84, 0x7a, 0x88, 0x79, 0x9f,
        0x81, 0xa1, 0x7c, 0x8b, 0x71, 0x79, 0x7d, 0x9d, 0x7b, 0x6a, 0x8c, 0x66,
        0x9e, 0x7b, 0x77, 0x7a, 0xb0, 0x74, 0x7f, 0x8d, 0x8d, 0x71, 0x72, 0x84,
        0x90, 0x98, 0x7b, 0x89, 0x9b, 0x8e, 0x85, 0x7a, 0x67, 0x8a, 0x72, 0x84,
        0x82, 0x91, 0x91, 0x7a, 0x85, 0x8a, 0xae, 0x8a, 0x9a, 0x9a, 0x7f, 0x85,
        0x8a, 0x90, 0x69, 0x7b, 0x76, 0x78, 0x98, 0x54, 0x94, 0x7e, 0x6c, 0x72,
        0x89, 0x88, 0x82, 0x96, 0x59, 0x95, 0x76, 0x91, 0x94, 0x96, 0x83, 0x84,
        0x72, 0x8d, 0x97, 0x71, 0x68, 0x8e, 0x88, 0x8b, 0x7c, 0xa9, 0x73, 0x8a,
        0x95, 0x86, 0x87, 0x96, 0x91, 0x77, 0xb1, 0x88, 0x6e, 0x7d, 0x7c, 0x9f,
        0x8f, 0x82, 0x79, 0x83, 0xa6, 0x81, 0x89, 0x83, 0x85, 0x9b, 0x7c, 0x68,
        0x6f, 0x84, 0x7c, 0xa1, 0x8e, 0x80, 0x78, 0x8f, 0x96, 0x77, 0x7e, 0x7b,
        0x8f, 0x81, 0xa5, 0x84, 0x86, 0x91, 0x7b, 0x73, 0x92, 0x85, 0xa3, 0x7e,
        0x80, 0x95, 0x7d, 0x5f, 0x8c, 0x94, 0x95, 0x73, 0x95, 0x78, 0x87, 0xa1,
        0x94, 0x6c, 0xac, 0x6c, 0x77, 0x89, 0x86, 0x9c, 0x82, 0x76, 0x99, 0x93,
        0x92, 0x88, 0x80, 0x80, 0x85, 0x8a, 0xa8, 0x8f, 0x7a, 0x89, 0x9a, 0x7a,
        0x8f, 0x91, 0x86, 0x82, 0x7f, 0x82, 0x91, 0x95, 0x85, 0x71, 0x7d, 0x8f,
        0x83, 0x8c, 0x79, 0x97, 0x7a, 0x9b, 0x91, 0x88, 0xa2, 0x86, 0x8a, 0x80,
        0xa0, 0x96, 0x8b, 0x7d, 0x76, 0x96, 0x9f, 0x8d, 0x95, 0x8a, 0x94, 0xa0,
        0x80, 0x95, 0x9b, 0x96, 0x81, 0xa8, 0x59, 0x89, 0x92, 0xb2, 0x83, 0x89,
        0x85, 0x81, 0x7e, 0x64, 0x77, 0x82, 0x90, 0x96, 0x7e, 0x9f, 0xab, 0x8a,
        0x6e, 0x9b, 0x90, 0x89, 0x6e, 0x7d, 0x81, 0x65, 0x81, 0x86, 0xa1, 0x93,
        0x8b, 0x83, 0x81, 0x89, 0x8b, 0x90, 0x7e, 0x97, 0x8e, 0x75, 0x7e, 0x7e,
        0x7b, 0x81, 0x9a, 0x64, 0x90, 0xab, 0x90, 0x82, 0x8a, 0x82, 0x8d, 0xad,
        0x90, 0x74, 0x7f, 0x9a, 0x88, 0x92, 0x83, 0x97, 0xa6, 0x6e, 0x9d, 0x81,
        0xa2, 0x98, 0x74, 0x84, 0x93, 0x85, 0x84, 0x7d, 0xa2, 0x92, 0x92, 0x87,
        0x73, 0x8b, 0x92, 0x74, 0x96, 0x70, 0x83, 0x86, 0x8a, 0x89, 0x86, 0x88,
        0x87, 0x7c, 0x7d, 0x81, 0x8d, 0x71, 0x8c, 0x89, 0x70, 0x94, 0x8f, 0x9a,
        0x83, 0x9d, 0x99, 0x78, 0x74, 0x88, 0x84, 0x9a, 0x95, 0x8b, 0x8e, 0x7f,
        0xa2, 0xa0, 0x76, 0x93, 0x9b, 0x7c, 0x97, 0x81, 0x83, 0x8c, 0xa1, 0x99,
        0x9d, 0x7f, 0x87, 0x75, 0xa7, 0x75, 0x89, 0x7e, 0x88, 0x80, 0x8f, 0x84,
        0x9a, 0x77, 0x8d, 0x90, 0x9d, 0x6c, 0x88, 0x8d, 0x8e, 0x81, 0x97, 0x6d,
        0x81, 0x88, 0x64, 0x8c, 0x77, 0x8e, 0x91, 0x8a, 0x7f, 0x8a, 0x94, 0x7a,
        0x89, 0x93, 0x8c, 0x69, 0x85, 0x8c, 0x93, 0x61, 0x7e, 0x89, 0x7e, 0x8a,
        0x65, 0x8a, 0xa9, 0x7f, 0x80, 0x86, 0x82, 0x90, 0x66, 0x7a, 0x99, 0x71,
        0x7f, 0x73, 0x8d, 0x94, 0x7d, 0x73, 0x7a, 0x7d, 0x87, 0x7a, 0x97, 0x70,
        0x81, 0x60, 0x61, 0x7a, 0x91, 0x88, 0x93, 0x7a, 0x9e, 0xa6, 0x92, 0x9d,
        0x92, 0x67, 0x99, 0x9a, 0xae, 0x71, 0x89, 0xa5, 0x9f, 0xa6, 0x98, 0x89,
        0x97, 0x90, 0x9b, 0x9a, 0xc0, 0x95, 0x8f, 0x9c, 0x95, 0x93, 0x88, 0x95,
        0x95, 0xa0, 0x8e, 0x8c, 0xa8, 0x94, 0x6e, 0x9e, 0x6f, 0x7b, 0xa5, 0x96,
        0x98, 0x90, 0x91, 0x89, 0x93, 0x8f, 0x84, 0xb2, 0x7f, 0x5e, 0xc2, 0x75,
        0x8f, 0x90, 0x9c, 0xbf, 0x8a, 0x84, 0xa6, 0x85, 0x7d, 0x84, 0x8a, 0xad,
        0x6f, 0x88, 0xac, 0x77, 0x91, 0x8d, 0x94, 0xac, 0x8f, 0x7f, 0xa1, 0xa5,
        0x8e, 0x6d, 0x8a, 0x82, 0x85, 0x80, 0x9b, 0x7a, 0x9f, 0x60, 0x95, 0x97,
        0x90, 0x67, 0x8f, 0x91, 0x86, 0x89, 0x88, 0x89, 0x96, 0x6c, 0x8b, 0x94,
        0x8a, 0x75, 0x84, 0x96, 0x8a, 0x86, 0x7c, 0x91, 0x74, 0x8f, 0x97, 0x89,
        0x8f, 0x8e, 0x6b, 0x97, 0x93, 0x89, 0x6b, 0x7e, 0x65, 0xa4, 0xa5, 0x63,
        0x85, 0x88, 0x81, 0xa3, 0x70, 0x9b, 0x9e, 0x8c, 0x62, 0x73, 0x85, 0xb4,
        0x88, 0x6e, 0x92, 0x6f, 0x91, 0x88, 0x79, 0x91, 0x7f, 0x7d, 0x9a, 0x6b,
        0x78, 0x93, 0x7e, 0x79, 0x93, 0x7a, 0x74, 0x91, 0x8d, 0x92, 0xb3, 0x61,
        0xa3, 0x76, 0x81, 0x99, 0x96, 0x8b, 0x93, 0x8f, 0xa7, 0x6f, 0x8f, 0xa6,
        0xb2, 0x76, 0xa1, 0x83, 0xa8, 0x8b, 0xae, 0x99, 0x90, 0x6a, 0x97, 0x97,
        0xaa, 0x95, 0x85, 0x7d, 0x97, 0x94, 0x86, 0x94, 0x89, 0xa4, 0xa9, 0x81,
        0x89, 0x7c, 0x96, 0xb3, 0x92, 0x7d, 0xa4, 0x6f, 0x6d, 0x92, 0x83, 0xb4,
        0x7b, 0x94, 0x8c, 0x79, 0x61, 0x6f, 0x8f, 0xb7, 0x88, 0x66, 0xaa, 0x7d,
        0x89, 0x7f, 0x90, 0xbd, 0x99, 0xac, 0xb1, 0x96, 0x9c, 0x7c, 0x92, 0xb7,
        0x73, 0x94, 0xad, 0x9d, 0x7c, 0x80, 0x87, 0x96, 0x73, 0x8d, 0xa8, 0x88,
        0xa9, 0x83, 0x7b, 0x84, 0x9d, 0x99, 0x83, 0x89, 0x9d, 0x7f, 0x7e, 0x86,
        0x75, 0x83, 0x77, 0x7d, 0x8b, 0x7d, 0x80, 0x9d, 0xa2, 0x94, 0x72, 0x92,
        0x75, 0x95, 0x99, 0xa0, 0x7b, 0x83, 0x99, 0x89, 0x82, 0x92, 0x5b, 0x9e,
        0x7c, 0x91, 0x95, 0x79, 0x61, 0x86, 0x60, 0xc7, 0x72, 0x91, 0xb5, 0x88,
        0x71, 0x8d, 0x85, 0x91, 0x83, 0x74, 0xa8, 0x67, 0x79, 0x77, 0x7f, 0x79,
        0x68, 0x84, 0x95, 0x69, 0x98, 0x88, 0x74, 0x72, 0x9c, 0x86, 0x87, 0x95,
        0x90, 0x95, 0x9b, 0x8b, 0xc5, 0x7d, 0x81, 0x8f, 0x88, 0x8c, 0xb0, 0x95,
        0xa8, 0x8c, 0x84, 0xa0, 0xb0, 0x89, 0x9a, 0x90, 0xaa, 0x88, 0x96, 0x9b,
        0x88, 0xa9, 0x89, 0x99, 0xb7, 0x82, 0x99, 0xa0, 0x85, 0x70, 0x9c, 0x9a,
        0x94, 0x74, 0x91, 0x81, 0x76, 0x70, 0x8f, 0xc2, 0x8c, 0x91, 0x8f, 0x69,
        0x74, 0x7e, 0x6d, 0x9a, 0x80, 0x77, 0xa5, 0x94, 0x8b, 0x6d, 0x82, 0xcf,
        0x8e, 0x74, 0xc4, 0x86, 0x7f, 0x78, 0x72, 0xb3, 0x78, 0x7a, 0xac, 0x9c,
        0x7d, 0x77, 0x8d, 0xca, 0x67, 0x8c, 0xd5, 0x8f, 0x7f, 0x71, 0x70, 0x82,
        0x7e, 0x9f, 0xb0, 0x7f, 0x75, 0x90, 0x79, 0x7b, 0x8d, 0x7b, 0xa6, 0x87,
        0x98, 0x76, 0x84, 0x96, 0x81, 0x6a, 0x96, 0x86, 0x8e, 0x77, 0xa3, 0x83,
        0x91, 0x83, 0x8a, 0x6c, 0x74, 0x83, 0x99, 0x7d, 0x7c, 0x8a, 0x88, 0x9a,
        0x6b, 0x86, 0x59, 0xa3, 0x8a, 0x8e, 0xbb, 0x8a, 0x75, 0x78, 0x68, 0xb5,
        0x9b, 0x7b, 0xa7, 0x93, 0x5b, 0x6c, 0x6b, 0xa0, 0x74, 0x99, 0xc0, 0x73,
        0x8b, 0x7e, 0x8e, 0x83, 0x64, 0x7c, 0x7d, 0x7a, 0x98, 0x7d, 0x82, 0x7c,
        0x8f, 0x7e, 0x74, 0x86, 0xa9, 0x84, 0xba, 0x8f, 0xc7, 0x6f, 0x87, 0xae,
        0x97, 0x91, 0xad, 0x82, 0xb2, 0x70, 0x8a, 0xa0, 0xb0, 0x7d, 0x95, 0x8d,
        0xc2, 0x85, 0x80, 0xad, 0x9f, 0x85, 0x8b, 0x76, 0xaa, 0xab, 0x8f, 0xa0,
        0x89, 0x9b, 0x8a, 0xb3, 0xa0, 0x72, 0xbe, 0x8c, 0x93, 0x7a, 0xa0, 0xad,
        0x99, 0x6f, 0xa2, 0x79, 0x78, 0x8b, 0x6d, 0xae, 0x75, 0x6f, 0xa1, 0x8d,
        0x68, 0x81, 0x74, 0xb3, 0x8f, 0x81, 0xc6, 0x96, 0x77, 0x68, 0x85, 0xaf,
        0x86, 0x9f, 0xbb, 0x8a, 0x7e, 0x8a, 0x86, 0xab, 0x8b, 0x87, 0x94, 0x96,
        0x99, 0x82, 0x6a, 0xaa, 0x7b, 0x81, 0xa6, 0x9b, 0xb6, 0x73, 0x78, 0x9a,
        0x8f, 0xaa, 0x93, 0x81, 0x97, 0x7a, 0x72, 0x82, 0x79, 0x81, 0x7c, 0x88,
        0x8e, 0x79, 0x9d, 0x81, 0x9a, 0x75, 0x9b, 0x89, 0x73, 0x6a, 0xa6, 0x84,
        0x5c, 0x6f, 0xa0, 0x9d, 0x81, 0x84, 0x3e, 0xaf, 0x94, 0xa1, 0xb8, 0x93,
        0x81, 0x89, 0x68, 0xd4, 0x87, 0x99, 0x99, 0x95, 0x79, 0x72, 0x81, 0xa1,
        0x78, 0x7d, 0x8f, 0x7e, 0x87, 0x78, 0x8e, 0x97, 0x7e, 0x96, 0x86, 0x86,
        0x97, 0x74, 0x6f, 0x7d, 0xa5, 0x81, 0x6f, 0x8e, 0x9e, 0x8b, 0xad, 0xac,
        0xbd, 0x75, 0x84, 0xa2, 0x93, 0x76, 0xc7, 0x9e, 0xb0, 0x75, 0x89, 0xa4,
        0x95, 0x92, 0xb5, 0xaa, 0xb9, 0x7d, 0x79, 0xa5, 0x88, 0x70, 0x84, 0x70,
        0xa3, 0x81, 0xa1, 0xa6, 0x8f, 0x96, 0x96, 0x8d, 0xa5, 0x83, 0xb2, 0x8f,
        0x88, 0x74, 0x96, 0xbc, 0x8b, 0x81, 0xa4, 0x85, 0x7c, 0x87, 0x64, 0xb4,
        0x80, 0x88, 0x92, 0x90, 0x78, 0x79, 0x77, 0xa5, 0x79, 0x8b, 0xbd, 0x7d,
        0x84, 0x8c, 0x96, 0xd4, 0x78, 0x81, 0xa4, 0x8c, 0x97, 0x89, 0x78, 0xc4,
        0x9f, 0x94, 0xb9, 0x83, 0x76, 0x78, 0x89, 0x86, 0x81, 0x8f, 0xbd, 0xa7,
        0x88, 0x79, 0x8e, 0x92, 0x86, 0x88, 0xad, 0x8a, 0x7b, 0x7f, 0x80, 0xad,
        0x7a, 0xaf, 0x8a, 0x93, 0xa6, 0x84, 0x92, 0x8e, 0x84, 0x99, 0x80, 0xae,
        0x74, 0x7c, 0x95, 0x9c, 0x7b, 0x84, 0x84, 0x84, 0xa4, 0x82, 0x57, 0xb5,
        0x95, 0xc1, 0xb7, 0xa0, 0x85, 0x7b, 0x69, 0xc3, 0xb1, 0x8e, 0xa0, 0x8e,
        0x81, 0x88, 0x78, 0x9e, 0x81, 0x97, 0xb2, 0x74, 0x81, 0x84, 0x91, 0x87,
        0x6f, 0x6f, 0x75, 0x78, 0x92, 0x7a, 0x6d, 0x80, 0x9a, 0x7e, 0x81, 0xa1,
        0xa8, 0x6d, 0xb5, 0x98, 0xb4, 0x7f, 0x9a, 0xa4, 0x9d, 0x7b, 0xba, 0xaa,
        0xce, 0x93, 0x79, 0xa5, 0x81, 0x95, 0xa6, 0x7f, 0x8c, 0x8b, 0x96, 0xa4,
        0xa1, 0x8d, 0x91, 0x97, 0xce, 0x8e, 0x8e, 0x9d, 0x86, 0x7f, 0x97, 0xa3,
        0x99, 0x75, 0xa3, 0xa0, 0x69, 0x6a, 0x87, 0xa0, 0x9a, 0x80, 0xa2, 0x72,
        0x6d, 0x85, 0x6b, 0x94, 0x8d, 0x77, 0x9f, 0x84, 0x7f, 0x92, 0x64, 0xaa,
        0x78, 0x82, 0xa7, 0x8f, 0x84, 0x79, 0x84, 0xb9, 0x92, 0x7c, 0xb6, 0x96,
        0x9c, 0x99, 0x8f, 0xab, 0xab, 0x8a, 0xa2, 0xab, 0x6d, 0x97, 0x7b, 0xb1,
        0x9e, 0x6c, 0x9a, 0x99, 0xaa, 0xa3, 0x70, 0x80, 0x81, 0x6f, 0xb6, 0x95,
        0x93, 0x93, 0x8e, 0x80, 0x86, 0xb0, 0x87, 0x91, 0x8f, 0x8c, 0xa4, 0x86,
        0x89, 0x8f, 0x93, 0x83, 0x75, 0x7d, 0x9b, 0x86, 0x7d, 0x5a, 0x9d, 0x67,
        0x9f, 0x78, 0x5c, 0xa5, 0x8e, 0xa2, 0xc1, 0x95, 0x89, 0x84, 0x53, 0xd1,
        0x7d, 0x9b, 0xc0, 0x8f, 0x73, 0x7f, 0x85, 0x9e, 0x8a, 0x7b, 0xa6, 0x84,
        0x6c, 0x74, 0x95, 0x93, 0x7a, 0x7a, 0x81, 0x7d, 0x89, 0x86, 0x76, 0x8a,
        0xad, 0x66, 0x90, 0x90, 0x9d, 0x77, 0xb4, 0xad, 0xac, 0x8e, 0xb3, 0xa5,
        0x9d, 0x91, 0xd7, 0x94, 0xba, 0x8b, 0x72, 0xa4, 0x93, 0x7e, 0xa7, 0x86,
        0xae, 0x83, 0x63, 0xa6, 0xa0, 0x78, 0x81, 0x8b, 0xc4, 0x82, 0x8f, 0x98,
        0xa1, 0x8f, 0x79, 0x9a, 0x92, 0x85, 0x9d, 0x91, 0x92, 0x84, 0x8f, 0x84,
        0x91, 0x6d, 0x7b, 0x69, 0x75, 0x87, 0x5d, 0x99, 0x92, 0x83, 0xab, 0x8f,
        0x53, 0x90, 0x7b, 0xa0, 0x71, 0x89, 0xc2, 0x7f, 0x6a, 0x7c, 0x86, 0xb2,
        0x8d, 0x89, 0xaf, 0x9c, 0x81, 0x8c, 0x84, 0xbe, 0x93, 0x9c, 0xa8, 0x97,
        0x68, 0x9b, 0x84, 0xa3, 0x8a, 0x77, 0xa5, 0x79, 0x7b, 0x87, 0x86, 0xa5,
        0x80, 0x83, 0x9e, 0x8d, 0xb1, 0x94, 0x7a, 0x8b, 0xa6, 0xa8, 0x80, 0x98,
        0x8c, 0x73, 0xa9, 0x7b, 0x91, 0x8f, 0x71, 0x82, 0x68, 0x84, 0xa5, 0x96,
        0x67, 0x63, 0xa6, 0x71, 0xa7, 0x85, 0x57, 0x9f, 0x91, 0xb2, 0xa6, 0x87,
        0x80, 0x8f, 0x6a, 0xba, 0x9d, 0xb7, 0xb9, 0x8b, 0x75, 0x7c, 0x6f, 0x9f,
        0x74, 0x8d, 0xaf, 0x6e, 0x7c, 0x65, 0x6c, 0x8a, 0x7c, 0x81, 0x89, 0x77,
        0x8b, 0x74, 0x65, 0x9b, 0xa5, 0x6b, 0x92, 0x71, 0xbb, 0x70, 0x99, 0xbf,
        0xb0, 0x7b, 0x92, 0xb4, 0xa4, 0x84, 0xc4, 0x92, 0xa8, 0x94, 0x7e, 0xcd,
        0x83, 0x87, 0xaf, 0xa0, 0xa5, 0x94, 0x72, 0xb9, 0x90, 0xa6, 0x9e, 0x9e,
        0x9b, 0x7a, 0x68, 0xc0, 0x8f, 0x89, 0x72, 0x94, 0x9b, 0x81, 0x81, 0x91,
        0x88, 0x90, 0xa8, 0x8d, 0x90, 0x78, 0x7c, 0x67, 0x64, 0x8e, 0x55, 0xa1,
        0x6d, 0x86, 0xa3, 0x6f, 0x5c, 0x7d, 0x79, 0xa3, 0x64, 0x71, 0xd4, 0x87,
        0x73, 0x85, 0x76, 0xc7, 0x72, 0x86, 0xb2, 0x8c, 0x7b, 0x8d, 0x96, 0xc3,
        0xad, 0x87, 0xac, 0xa8, 0x84, 0x94, 0x7b, 0xbf, 0x83, 0x74, 0x8e, 0x8c,
        0x9c, 0x99, 0x88, 0x8e, 0x86, 0x88, 0xae, 0x7f, 0x70, 0x96, 0x6f, 0x74,
        0x8f, 0x85, 0x7c, 0x86, 0x97, 0x83, 0xa0, 0x6a, 0x8b, 0x82, 0x88, 0x90,
        0x72, 0x84, 0x9b, 0xa1, 0x6f, 0x72, 0xa4, 0x95, 0xa6, 0x7d, 0x65, 0xbd,
        0x90, 0xb6, 0x9e, 0x98, 0xa1, 0x94, 0x66, 0xb3, 0x9c, 0xb3, 0xa7, 0x7f,
        0x91, 0x69, 0x6e, 0xb1, 0x68, 0x7a, 0xaa, 0x91, 0x7c, 0x71, 0x9f, 0x95,
        0x83, 0x86, 0x76, 0x69, 0x9b, 0x7f, 0x8c, 0x94, 0x9c, 0x89, 0x86, 0x93,
        0xc1, 0x79, 0x98, 0x9e, 0xb1, 0x90, 0x9b, 0xb7, 0xab, 0x86, 0xc6, 0xa1,
        0xa9, 0xaa, 0x86, 0xb0, 0x8b, 0x79, 0xb9, 0x85, 0xbe, 0x92, 0x60, 0xc0,
        0x9f, 0x9a, 0x90, 0x8d, 0xb5, 0x77, 0x95, 0xad, 0x8b, 0x93, 0x8a, 0x93,
        0x93, 0x7e, 0x86, 0xa6, 0x7d, 0x89, 0x6b, 0x81, 0x93, 0x75, 0x7f, 0x86,
        0x66, 0x8f, 0x56, 0x8f, 0x84, 0x75, 0x9e, 0x77, 0x78, 0x89, 0x62, 0xb3,
        0x78, 0x76, 0xb5, 0x92, 0x7f, 0x80, 0x7a, 0xb9, 0x7d, 0x80, 0xc2, 0xb9,
        0x7d, 0x8f, 0x8f, 0x8c, 0xa0, 0x78, 0xa2, 0xaf, 0x68, 0x98, 0x77, 0xac,
        0x96, 0x77, 0x96, 0x99, 0x84, 0xb1, 0x72, 0x8e, 0x96, 0xa4, 0xa9, 0x8e,
        0x84, 0x7b, 0x85, 0x8d, 0x8f, 0x83, 0x83, 0x7f, 0x85, 0x6e, 0xa4, 0x98,
        0xab, 0x83, 0x90, 0x8e, 0x77, 0x8e, 0xab, 0x9c, 0x73, 0x79, 0x8d, 0x6e,
        0xa0, 0x97, 0x68, 0xa7, 0x8a, 0xbd, 0x95, 0x96, 0x96, 0x8b, 0x72, 0xc7,
        0x8d, 0x8c, 0xa5, 0x83, 0x9b, 0x8b, 0x6c, 0xac, 0x62, 0x78, 0xae, 0x78,
        0x71, 0x7a, 0x8d, 0xae, 0x91, 0x87, 0x90, 0x82, 0x9b, 0x83, 0x90, 0x97,
        0xb0, 0x96, 0x82, 0xa5, 0xa9, 0x76, 0xa5, 0xa0, 0xac, 0xa1, 0x93, 0x94,
        0xb7, 0x91, 0xbb, 0x9b, 0xa4, 0xa5, 0x8c, 0xb5, 0x95, 0x7b, 0x92, 0x91,
        0xb0, 0x97, 0x73, 0xb9, 0x86, 0xa7, 0x92, 0x98, 0x9e, 0x70, 0x77, 0xba,
        0x96, 0x7b, 0xa6, 0x86, 0x97, 0x85, 0x8e, 0xaa, 0x93, 0x97, 0x8f, 0x8b,
        0x8d, 0x79, 0x84, 0x7e, 0x70, 0x95, 0x52, 0x8f, 0x62, 0x75, 0x8b, 0x8b,
        0x7b, 0x8b, 0x79, 0xaf, 0x90, 0x6d, 0xc8, 0x8d, 0x84, 0x8c, 0x72, 0xaf,
        0x70, 0x8d, 0xa5, 0x8a, 0x76, 0x97, 0x87, 0x8e, 0xa9, 0x83, 0xb2, 0x8d,
        0x7e, 0x9b, 0x76, 0xc2, 0xa2, 0x72, 0xc5, 0x87, 0x75, 0xb7, 0x92, 0x95,
        0x9e, 0xa0, 0xc3, 0x82, 0x8d, 0x8f, 0x7d, 0x85, 0x90, 0x99, 0x7b, 0x82,
        0x87, 0x87, 0xa0, 0x87, 0x9a, 0x8b, 0xa2, 0xa4, 0x67, 0x93, 0xa5, 0xbb,
        0x73, 0x5f, 0x8c, 0x60, 0xa5, 0x7d, 0x6c, 0xb3, 0xb2, 0xb3, 0xa9, 0xa9,
        0x8d, 0x8d, 0x67, 0xd7, 0x63, 0x99, 0xaa, 0x83, 0x88, 0x6a, 0x6f, 0x9e,
        0x5e, 0x9e, 0x9d, 0x81, 0x84, 0x6e, 0x98, 0x90, 0x89, 0x7c, 0x95, 0x7d,
        0x81, 0x8a, 0xa2, 0x8c, 0x92, 0x85, 0x80, 0x92, 0xac, 0x80, 0x9b, 0x9b,
        0xc3, 0x8c, 0x95, 0xbc, 0xaa, 0x7c, 0xb5, 0x8d, 0xa1, 0xb8, 0x70, 0xb6,
        0x8c, 0x92, 0xa8, 0x8e, 0xa3, 0x76, 0x6c, 0xbe, 0xa0, 0x8c, 0x92, 0x8e,
        0xa1, 0x83, 0x76, 0xb2, 0x91, 0x7b, 0x8e, 0x87, 0x7f, 0x89, 0x8a, 0xa1,
        0x91, 0xa0, 0x7a, 0x95, 0x7b, 0x86, 0x99, 0x92, 0x78, 0x8a, 0x62, 0x9e,
        0x7b, 0x7b, 0x89, 0x79, 0x78, 0x87, 0x82, 0x94, 0x7d, 0x91, 0x96, 0x79,
        0x7b, 0x8d, 0x80, 0xa7, 0x88, 0x95, 0xa6, 0x8f, 0x7d, 0x95, 0x79, 0xa2,
        0x91, 0x9b, 0x9d, 0x90, 0x79, 0xa4, 0x88, 0x98, 0x9b, 0x7a, 0xa5, 0x7f,
        0x71, 0x9c, 0x87, 0x96, 0x8c, 0x8f, 0xbc, 0x74, 0x95, 0x99, 0x7f, 0x78,
        0x8c, 0x63, 0x7c, 0x7a, 0x92, 0x8c, 0xa8, 0x78, 0xa8, 0x89, 0x9a, 0x86,
        0x69, 0x7e, 0xa1, 0xc3, 0x57, 0x68, 0x84, 0x89, 0xa9, 0x8d, 0x6f, 0xa9,
        0x8a, 0xab, 0xa5, 0xad, 0x94, 0x83, 0x6b, 0xa7, 0x7e, 0x95, 0x9b, 0x7f,
        0x8b, 0x78, 0x73, 0x90, 0x65, 0x8d, 0xb1, 0x91, 0x84, 0x65, 0x90, 0xb4,
        0x8c, 0x89, 0x94, 0x7c, 0x99, 0x8b, 0x98, 0xb7, 0xb0, 0x91, 0x9e, 0x88,
        0xbd, 0xa0, 0xa4, 0xb9, 0xad, 0x96, 0x97, 0xa3, 0xb6, 0x81, 0xba, 0x9b,
        0xbc, 0xa9, 0x94, 0xb9, 0xa0, 0x85, 0x8e, 0xa1, 0xac, 0x87, 0x65, 0xa6,
        0x98, 0x8e, 0xaa, 0xa3, 0xa3, 0x7f, 0x79, 0xb4, 0x93, 0x76, 0x90, 0x99,
        0x8b, 0x90, 0x84, 0xa6, 0x90, 0x8f, 0x88, 0xa6, 0x89, 0x83, 0x86, 0x7a,
        0x5d, 0x96, 0x71, 0xa5, 0x64, 0x94, 0x9a, 0x85, 0x7c, 0xa1, 0x96, 0x9d,
        0x76, 0x8f, 0x95, 0xa0, 0x7f, 0x8c, 0x80, 0xc7, 0x6c, 0x7d, 0xb7, 0xb2,
        0x82, 0x8e, 0x82, 0xbd, 0xb3, 0x82, 0x99, 0x9b, 0x80, 0x94, 0x8c, 0x94,
        0x94, 0x6b, 0xc6, 0xa9, 0x81, 0x9f, 0x8c, 0x7e, 0x87, 0x88, 0xb3, 0x7d,
        0x88, 0x8c, 0x81, 0x81, 0x7e, 0x7e, 0x86, 0x87, 0x96, 0x85, 0xb4, 0x87,
        0xab, 0x91, 0x8f, 0xa1, 0x72, 0x83, 0xa4, 0x89, 0x6b, 0x75, 0x85, 0x7c,
        0x94, 0x85, 0x6f, 0xad, 0x91, 0xae, 0xa4, 0xa5, 0xa7, 0x8e, 0x6c, 0xb2,
        0x73, 0x99, 0x96, 0x92, 0x89, 0x81, 0x7d, 0x88, 0x60, 0x8d, 0x94, 0x83,
        0x99, 0x68, 0x86, 0xa2, 0x94, 0x8e, 0x82, 0x76, 0x89, 0x8d, 0x98, 0x86,
        0x94, 0x90, 0x83, 0x7d, 0xad, 0x94, 0xa6, 0x90, 0xcb, 0x96, 0xa2, 0xb2,
        0xb6, 0x89, 0xc4, 0x9d, 0xc7, 0xa5, 0x75, 0xc3, 0x92, 0x8c, 0x8e, 0xad,
        0x96, 0x94, 0x8e, 0xab, 0x94, 0x90, 0xa8, 0x84, 0xb5, 0x84, 0x66, 0xce,
        0x74, 0x8c, 0x93, 0x8d, 0x8f, 0x95, 0x8b, 0xa1, 0x7b, 0xa1, 0x79, 0x9e,
        0x81, 0xa4, 0xa0, 0x98, 0x5f, 0x78, 0x8e, 0x97, 0x6f, 0x81, 0x96, 0x8d,
        0x70, 0x93, 0x72, 0x9c, 0x7b, 0x98, 0x8b, 0x8a, 0x8f, 0x8b, 0x6c, 0xa9,
        0x81, 0x99, 0xb3, 0xa3, 0x71, 0x9c, 0x8b, 0x94, 0xa6, 0x8a, 0xb8, 0xa0,
        0x7b, 0x98, 0x74, 0x9f, 0x92, 0x92, 0xb2, 0x89, 0x81, 0xa8, 0x87, 0x97,
        0x96, 0x86, 0xa4, 0x7b, 0x63, 0x8e, 0x86, 0x7d, 0x76, 0x81, 0x93, 0x94,
        0x98, 0x8b, 0xaf, 0x6d, 0xab, 0x9b, 0x85, 0x9b, 0x91, 0x86, 0x95, 0x95,
        0x65, 0x89, 0x9e, 0x6b, 0xa4, 0x82, 0x68, 0xb5, 0x8b, 0xd1, 0x9d, 0x93,
        0x7d, 0x67, 0x5e, 0xba, 0x9b, 0x94, 0x93, 0x8d, 0x88, 0x73, 0x7c, 0x8e,
        0x7d, 0x83, 0x9a, 0x82, 0xa4, 0x62, 0x9a, 0x8d, 0x86, 0xa0, 0x7b, 0x72,
        0xa9, 0x84, 0xa7, 0x94, 0xb2, 0x98, 0x8f, 0x81, 0xbe, 0x84, 0x9d, 0x94,
        0x9c, 0x9a, 0x94, 0x8f, 0xb1, 0x82, 0xb1, 0x82, 0xb1, 0xb2, 0x78, 0xa7,
        0x95, 0x99, 0x8b, 0x8c, 0xb1, 0x81, 0x5b, 0xbb, 0x88, 0x7a, 0x90, 0xa3,
        0x8d, 0x78, 0x6f, 0xbf, 0x8c, 0x93, 0xa1, 0x8e, 0x9f, 0x98, 0x88, 0xb3,
        0x7e, 0x82, 0x8a, 0x8e, 0x7d, 0x8a, 0x96, 0x6a, 0x6c, 0x7b, 0x91, 0x94,
        0x6f, 0x89, 0x9a, 0x84, 0x73, 0x8b, 0x8c, 0x91, 0x7d, 0x8e, 0x9e, 0x80,
        0x88, 0x81, 0x78, 0xaf, 0x86, 0xa5, 0xa2, 0x8d, 0x6a, 0x8a, 0x75, 0xa1,
        0x83, 0x87, 0xaf, 0x7d, 0x6c, 0xa3, 0x65, 0x77, 0x89, 0x91, 0x9a, 0xa1,
        0xa1, 0xaf, 0x78, 0x94, 0x93, 0xb2, 0xaf, 0x92, 0x74, 0x7a, 0xa7, 0x7b,
        0x8f, 0x9c, 0x86, 0x8d, 0x8f, 0x79, 0xb0, 0xb3, 0x97, 0x82, 0x8e, 0x92,
        0x92, 0x81, 0xa7, 0xbc, 0x6e, 0x6e, 0x89, 0xa5, 0x9a, 0x8d, 0x84, 0xb6,
        0x83, 0xae, 0xa5, 0xa7, 0xae, 0x86, 0x6b, 0xb9, 0x89, 0xb0, 0x8f, 0x82,
        0x8f, 0x6f, 0x83, 0x98, 0x6a, 0x98, 0x9a, 0x85, 0x9f, 0x78, 0x93, 0x8d,
        0x83, 0x88, 0x88, 0x7e, 0x97, 0x99, 0x8a, 0x9b, 0xb0, 0x90, 0x86, 0x88,
        0xb5, 0x90, 0xb3, 0xaa, 0xad, 0x96, 0x93, 0xa3, 0x9d, 0x81, 0xa3, 0x9a,
        0x9f, 0x99, 0x90, 0x9c, 0x9e, 0x8e, 0x88, 0x93, 0xa8, 0x94, 0x62, 0xa6,
        0x94, 0x92, 0xa1, 0x86, 0xb7, 0x8a, 0x6a, 0xa6, 0x81, 0x7e, 0x7b, 0x80,
        0x89, 0x8f, 0x74, 0xa6, 0x72, 0x91, 0xa6, 0x9b, 0x73, 0x97, 0x7e, 0x6f,
        0x70, 0x8d, 0x73, 0x98, 0x80, 0x90, 0x8f, 0x7e, 0x83, 0x77, 0x84, 0x92,
        0x7f, 0x8c, 0x91, 0xa6, 0x99, 0x90, 0x9d, 0xb1, 0x88, 0x85, 0x89, 0x85,
        0x7c, 0x9f, 0x7e, 0xb0, 0xaa, 0x84, 0xa0, 0x8e, 0x74, 0x93, 0x78, 0x90,
        0x9a, 0x8b, 0x8e, 0x97, 0x8f, 0x9f, 0x7c, 0x83, 0x8a, 0x88, 0xa5, 0x8f,
        0x8b, 0x74, 0x84, 0x9a, 0x7f, 0x91, 0x88, 0x77, 0x9c, 0x91, 0xbc, 0x93,
        0x9c, 0x82, 0x89, 0x9b, 0x8a, 0x7d, 0xb7, 0xb8, 0x6f, 0x68, 0xb5, 0x8e,
        0xb4, 0x86, 0x8c, 0xb3, 0x94, 0xb6, 0xa4, 0x93, 0x98, 0x8b, 0x70, 0xb3,
        0x96, 0xaa, 0x87, 0x89, 0x99, 0x68, 0x74, 0xa4, 0x69, 0x9e, 0x8e, 0x6b,
        0x9f, 0x6b, 0x95, 0x9c, 0x88, 0x89, 0x8a, 0x86, 0x8d, 0x75, 0x94, 0x88,
        0xa0, 0x94, 0x77, 0x8c, 0x9c, 0x8d, 0x8e, 0xa4, 0xac, 0xa7, 0x8a, 0x9b,
        0xa9, 0x81, 0xab, 0xac, 0xaf, 0xaf, 0x87, 0xbb, 0x9b, 0x95, 0x8e, 0x9e,
        0x9f, 0xa1, 0x6c, 0xb4, 0x98, 0x8f, 0x81, 0x8d, 0x98, 0x8f, 0x78, 0x96,
        0x89, 0x86, 0x6c, 0x91, 0x8d, 0x9f, 0x95, 0x9f, 0x6b, 0x7f, 0x93, 0x7c,
        0x96, 0x8e, 0x8a, 0x58, 0x80, 0x8e, 0x7a, 0x93, 0x8b, 0x78, 0x99, 0x92,
        0x62, 0x8e, 0x83, 0x8e, 0x87, 0x83, 0x86, 0x99, 0x93, 0x92, 0x80, 0x95,
        0xa2, 0x72, 0xa2, 0x97, 0x78, 0x87, 0x7b, 0xa3, 0x99, 0x78, 0x98, 0x9c,
        0x80, 0x9b, 0x5e, 0x8a, 0x9c, 0x99, 0xa6, 0x7a, 0x8e, 0x99, 0x7a, 0x8e,
        0x8b, 0x76, 0x9b, 0x89, 0x80, 0x8e, 0x83, 0x8a, 0x80, 0x7c, 0x80, 0x74,
        0x95, 0x8c, 0xbf, 0x7e, 0xa8, 0x7a, 0x99, 0x7d, 0x7d, 0x73, 0xb4, 0xae,
        0x88, 0x76, 0xae, 0x78, 0xaa, 0x65, 0x94, 0xbe, 0x97, 0xaf, 0xa4, 0x91,
        0x9c, 0x95, 0x6c, 0xbe, 0x82, 0xb1, 0x9b, 0x91, 0x85, 0x7d, 0x66, 0x9c,
        0x99, 0xbd, 0xa3, 0x88, 0xa8, 0x73, 0x81, 0x94, 0x92, 0x8e, 0x90, 0x8d,
        0xaf, 0x75, 0x86, 0x9b, 0x8b, 0x8b, 0x8d, 0x74, 0xbd, 0x85, 0x97, 0x8b,
        0x9d, 0xba, 0x90, 0xa8, 0x9d, 0x72, 0xa5, 0xa8, 0xbf, 0xbb, 0x7b, 0xb6,
        0xad, 0x94, 0x6f, 0x9a, 0xa7, 0x97, 0x78, 0x9c, 0x98, 0x8d, 0x8c, 0x93,
        0xb8, 0xa8, 0x7f, 0x9d, 0x98, 0x7f, 0x8f, 0x8a, 0x8d, 0xa8, 0x86, 0x7b,
        0x5d, 0x89, 0x8a, 0x83, 0x8c, 0x8b, 0x81, 0x56, 0x7c, 0x87, 0x89, 0xa6,
        0x75, 0x7c, 0x92, 0x74, 0x96, 0x92, 0x78, 0x8d, 0x8d, 0x98, 0xae, 0x7a,
        0x95, 0x8f, 0x8b, 0x9c, 0x95, 0x9f, 0xae, 0x93, 0x7b, 0x93, 0x8c, 0x9a,
        0x79, 0x74, 0x94, 0x6e, 0x7e, 0x8f, 0x64, 0x9f, 0x9c, 0x88, 0x8f, 0x8e,
        0x84, 0x8d, 0x89, 0x95, 0x96, 0x8f, 0x9d, 0x60, 0x85, 0x86, 0x7c, 0x93,
        0x8d, 0x68, 0x83, 0x7c, 0x94, 0x87, 0xb8, 0xa2, 0x9d, 0x82, 0x8e, 0x84,
        0x6c, 0x73, 0xa8, 0xbc, 0x84, 0x85, 0xa2, 0x79, 0x92, 0x64, 0x69, 0xa9,
        0x82, 0xa7, 0x9d, 0x95, 0x8e, 0x6f, 0x9f, 0xa7, 0x97, 0xb1, 0x9d, 0x8e,
        0xa1, 0x70, 0x80, 0x9e, 0x8e, 0x91, 0xa0, 0xaa, 0x81, 0x5b, 0x98, 0x8f,
        0xa0, 0xaa, 0x83, 0x7a, 0x91, 0x7a, 0x73, 0x80, 0xa6, 0x9a, 0x80, 0x7d,
        0x9e, 0x75, 0x7b, 0xa3, 0xad, 0x92, 0x98, 0xc0, 0xa1, 0x80, 0x88, 0xa2,
        0xa5, 0xa4, 0x7e, 0x9b, 0xa0, 0x80, 0x6e, 0xa0, 0x9f, 0xa3, 0x8a, 0x8f,
        0xa2, 0x93, 0x86, 0x8d, 0x8f, 0x93, 0x7e, 0x90, 0x98, 0x83, 0x7d, 0x9b,
        0x9f, 0x9a, 0x97, 0x83, 0x6e, 0x8d, 0x94, 0x6c, 0x7b, 0x7f, 0x73, 0x65,
        0x6a, 0x93, 0x8a, 0x94, 0x83, 0x89, 0x7d, 0x7b, 0x77, 0x8a, 0x7a, 0x9b,
        0x8e, 0x8d, 0x94, 0x89, 0x86, 0x83, 0x7c, 0x8e, 0x8b, 0x90, 0xab, 0x99,
        0x81, 0x8e, 0x77, 0x9c, 0x8c, 0x82, 0x97, 0x8f, 0x78, 0x91, 0x5f, 0xa1,
        0x8b, 0x83, 0xa9, 0x8d, 0x7b, 0x97, 0x77, 0x80, 0x84, 0x7e, 0x9e, 0x75,
        0xa3, 0x86, 0x67, 0x7c, 0x80, 0x6d, 0x77, 0x75, 0x88, 0x75, 0xad, 0x7a,
        0x93, 0x89, 0x8c, 0x87, 0x7a, 0x79, 0xb2, 0xa1, 0x69, 0x80, 0xb5, 0x7a,
        0xa6, 0x7b, 0x95, 0xac, 0x95, 0xa9, 0x98, 0xa4, 0xad, 0x83, 0x8d, 0xbe,
        0xa4, 0x98, 0xad, 0x7d, 0x8b, 0x65, 0x65, 0xad, 0x6a, 0xae, 0xa3, 0xa8,
        0x9c, 0x63, 0x90, 0x91, 0x6d, 0x9a, 0x81, 0x98, 0x86, 0x6a, 0x83, 0x84,
        0x94, 0x9c, 0x77, 0x86, 0xc2, 0x7f, 0x9b, 0xa9, 0xad, 0xae, 0xa7, 0xa6,
        0xd4, 0x70, 0x9d, 0xb5, 0xaa, 0xdb, 0x8f, 0xa3, 0xa5, 0x87, 0x88, 0x9e,
        0xa9, 0x9f, 0x62, 0xa7, 0xa2, 0x8e, 0x7d, 0x8a, 0x9d, 0xa2, 0x6b, 0xa7,
        0x96, 0x6d, 0x76, 0x8c, 0x9b, 0x8c, 0x86, 0x86, 0x93, 0x7c, 0x9d, 0x7c,
        0x7e, 0x93, 0x5c, 0x79, 0x76, 0x8c, 0x8a, 0x87, 0x79, 0x97, 0x9a, 0x7a,
        0x85, 0x8c, 0x7f, 0x85, 0x7a, 0xa1, 0xa7, 0x72, 0x87, 0x7f, 0x96, 0x9e,
        0x92, 0x92, 0x9e, 0xa0, 0x72, 0x99, 0x7a, 0xb0, 0x8c, 0x8d, 0xa3, 0x9b,
        0x91, 0xa6, 0x63, 0x94, 0x8b, 0x81, 0xbb, 0x94, 0x79, 0x95, 0x99, 0x9a,
        0xa0, 0x7a, 0x96, 0x72, 0x82, 0x9a, 0x83, 0x7f, 0x72, 0x7f, 0x6d, 0x75,
        0x91, 0x7f, 0xbc, 0x84, 0x9a, 0x81, 0x95, 0x69, 0x7d, 0x6d, 0xa2, 0xa8,
        0x7e, 0x64, 0xac, 0x86, 0x85, 0x6d, 0x99, 0xaa, 0x7e, 0x79, 0x9c, 0xa0,
        0xa4, 0x77, 0x99, 0xac, 0xa8, 0x8d, 0xb7, 0xa2, 0xa3, 0x61, 0x82, 0x98,
        0x84, 0x8e, 0xa1, 0x8c, 0x88, 0x82, 0x6f, 0x7d, 0x88, 0x80, 0x7a, 0x8a,
        0x8c, 0x6d, 0x87, 0x6f, 0xab, 0x8f, 0x8b, 0x76, 0xa0, 0x7d, 0x9f, 0xab,
        0xb0, 0xb8, 0x9c, 0x8d, 0xb8, 0x81, 0x89, 0x94, 0xa8, 0xc8, 0x92, 0x9b,
        0x8d, 0x83, 0x7b, 0xaf, 0x97, 0x94, 0x6e, 0xa5, 0x9b, 0x97, 0x89, 0x8d,
        0xaa, 0x8a, 0x66, 0x88, 0x93, 0x84, 0xa1, 0x88, 0xa0, 0x99, 0x85, 0x89,
        0x7d, 0x84, 0x8b, 0x6a, 0x92, 0xa1, 0x74, 0x76, 0x73, 0x87, 0x7a, 0x9a,
        0x77, 0x86, 0x89, 0x5f, 0x7f, 0x8b, 0x7f, 0x8d, 0x7e, 0x81, 0x95, 0x8a,
        0x7d, 0x85, 0x74, 0x9a, 0x87, 0x8c, 0x9e, 0xae, 0x80, 0x88, 0x7d, 0x8b,
        0xaa, 0x79, 0x7c, 0x97, 0x79, 0x90, 0x7b, 0x97, 0x97, 0x9f, 0xa1, 0xa2,
        0xab, 0x97, 0x69, 0x7a, 0x8d, 0x9f, 0x9f, 0x89, 0x90, 0x8c, 0x66, 0x98,
        0x6e, 0x86, 0x7b, 0x6e, 0x86, 0x8a, 0xb2, 0xa6, 0x93, 0x7d, 0x8c, 0x81,
        0x7e, 0x84, 0xa6, 0xb6, 0x83, 0x92, 0xa0, 0x88, 0x90, 0x5f, 0x7c, 0x92,
        0x98, 0x94, 0x92, 0x98, 0xa7, 0x65, 0x90, 0xa2, 0xa2, 0x9b, 0xa6, 0x7d,
        0x8b, 0x5a, 0x94, 0x95, 0x9b, 0xa5, 0x99, 0xa5, 0x7e, 0x61, 0x9a, 0x7a,
        0x8b, 0x77, 0x87, 0x76, 0x9d, 0x72, 0x9a, 0x84, 0x98, 0x94, 0x92, 0x73,
        0xae, 0x78, 0x8e, 0xaa, 0xa0, 0xc3, 0x7a, 0xa4, 0xa0, 0x75, 0xa9, 0xae,
        0x8c, 0xd6, 0x87, 0x8f, 0x9f, 0x8c, 0x9b, 0x90, 0x99, 0x97, 0x73, 0x8f,
        0x9b, 0x9c, 0x8c, 0x89, 0xa5, 0x84, 0x8f, 0x7b, 0x8b, 0x7f, 0x97, 0x98,
        0x8d, 0x7b, 0x94, 0x9d, 0x9c, 0x8e, 0x92, 0x89, 0x88, 0x8d, 0x6c, 0x63,
        0x73, 0x81, 0x72, 0x8a, 0x88, 0x8a, 0x9f, 0x79, 0x81, 0x82, 0x9a, 0xa9,
        0x7a, 0x92, 0x7d, 0x76, 0x7b, 0x7a, 0x6a, 0xbe, 0x91, 0x7d, 0x86, 0xad,
        0x84, 0x86, 0x6c, 0x91, 0x91, 0x9f, 0x92, 0x6b, 0x95, 0x98, 0x84, 0xa0,
        0x8f, 0x8b, 0x9e, 0x7f, 0x9f, 0x97, 0x7e, 0x87, 0x80, 0x9e, 0x79, 0x8d,
        0x68, 0x87, 0x88, 0x7d, 0x89, 0x81, 0x6d, 0x85, 0x80, 0x82, 0xa0, 0x97,
        0xa3, 0x72, 0x94, 0x74, 0x8e, 0x56, 0x96, 0x98, 0x91, 0x6f, 0xa0, 0xae,
        0x7c, 0x6e, 0x8e, 0xa9, 0x7c, 0x80, 0x87, 0xa3, 0x9e, 0x57, 0x8e, 0xb5,
        0x87, 0xa6, 0x87, 0x79, 0x8f, 0x55, 0x8a, 0x81, 0x97, 0x6c, 0x9b, 0x99,
        0x78, 0x5c, 0x82, 0x80, 0x91, 0x76, 0x80, 0x91, 0x8b, 0x65, 0x89, 0x7d,
        0xa9, 0x95, 0x89, 0x97, 0x96, 0x6a, 0x89, 0xad, 0x92, 0x9f, 0xb6, 0x82,
        0x88, 0x79, 0x9d, 0xa5, 0x9c, 0xae, 0x9a, 0x93, 0x77, 0x8e, 0x8a, 0xb5,
        0x84, 0xb0, 0x76, 0xa2, 0x89, 0xa0, 0x96, 0x7a, 0xa5, 0x8e, 0x7e, 0x74,
        0x8d, 0x89, 0x89, 0x9e, 0x93, 0x95, 0x90, 0x78, 0x93, 0x8f, 0xa5, 0x7c,
        0x9d, 0x7c, 0x77, 0x85, 0x81, 0x92, 0x7c, 0x87, 0x92, 0x82, 0x98, 0xa3,
        0x63, 0x76, 0x9b, 0x91, 0x7b, 0x8e, 0x97, 0x7e, 0x66, 0x90, 0x63, 0xb4,
        0x71, 0x88, 0x86, 0x8e, 0x6f, 0x89, 0x7a, 0x88, 0x93, 0x7f, 0x96, 0xa8,
        0x7d, 0x88, 0x88, 0x86, 0x7b, 0x91, 0x88, 0x6b, 0xa6, 0x8b, 0x69, 0x78,
        0x82, 0x80, 0x83, 0x6b, 0xaf, 0x81, 0x7b, 0x64, 0x8f, 0x78, 0x6e, 0x7f,
        0x86, 0x91, 0x92, 0xa3, 0xa0, 0x97, 0x82, 0x88, 0x92, 0x90, 0x9e, 0x89,
        0x9d, 0x7b, 0x96, 0x82, 0xa3, 0x8c, 0x7f, 0x84, 0x7a, 0x6c, 0x60, 0x85,
        0xa9, 0x74, 0x83, 0xa2, 0x89, 0x87, 0x9b, 0x77, 0x9b, 0x9a, 0x99, 0x84,
        0x7c, 0x9c, 0x8d, 0x90, 0x8d, 0x7b, 0x74, 0x77, 0x93, 0x8c, 0x6c, 0x8b,
        0x85, 0x78, 0x7f, 0x7d, 0x75, 0x7f, 0x7e, 0x85, 0x8f, 0x7d, 0x62, 0x8c,
        0x7c, 0xad, 0x7f, 0x83, 0xa1, 0xa1, 0x97, 0x7b, 0x72, 0x82, 0x9d, 0x81,
        0x94, 0x81, 0x8d, 0x9f, 0x6f, 0x8f, 0x9d, 0x89, 0x6a, 0x7e, 0x7f, 0x7f,
        0x8d, 0x7e, 0x91, 0x86, 0x7d, 0x8a, 0x7e, 0x70, 0x7b, 0x9b, 0x6e, 0x5f,
        0xa8, 0x7a, 0x73, 0x8a, 0x7a, 0x71, 0x90, 0x95, 0x8d, 0x78, 0x7b, 0x72,
        0x5e, 0x89, 0x62, 0xa1, 0x87, 0x7f, 0x83, 0x75, 0x98, 0x7f, 0x76, 0x72,
        0x8f, 0x9b, 0x7a, 0x8b, 0xa1, 0x7f, 0x60, 0x99, 0x96, 0x6e, 0x67, 0x76,
        0x88, 0x98, 0x6c, 0x7b, 0x9b, 0x8d, 0x5f, 0x89, 0x7c, 0x81, 0x79, 0x86,
        0x69, 0x9e, 0x83, 0x65, 0x8e, 0x82, 0x83, 0x89, 0x85, 0x7f, 0x90, 0x80,
        0xa2, 0x81, 0x85, 0x83, 0x8e, 0x94, 0x94, 0x75, 0x86, 0x87, 0x9a, 0xb2,
        0x82, 0x99, 0x85, 0x7f, 0x8c, 0x7e, 0x81, 0x9a, 0x81, 0x7d, 0x87, 0x81,
        0xa3, 0x8c, 0x8d, 0x85, 0x8d, 0x96, 0x86, 0x7c, 0xa7, 0x87, 0x7e, 0x9d,
        0x63, 0xa8, 0x7c, 0x97, 0xa2, 0xa4, 0x7e, 0x87, 0x93, 0x9e, 0x89, 0x8d,
        0x6b, 0x6d, 0x9d, 0x9b, 0x78, 0x8a, 0x8e, 0x7f, 0x7b, 0xa5, 0x6e, 0x8c,
        0x89, 0x88, 0x73, 0x7e, 0x77, 0x9d, 0xa6, 0xa7, 0x77, 0x87, 0x7e, 0x7e,
        0x97, 0x84, 0x6b, 0x59, 0x60, 0x90, 0x85, 0x76, 0x8f, 0x61, 0x7f, 0x94,
        0x8f, 0x84, 0x8b, 0x7f, 0x73, 0x77, 0x73, 0x71, 0x8a, 0x9b, 0x7b, 0x89,
        0x97, 0x8f, 0x76, 0x63, 0xa3, 0xa1, 0x6b, 0x7c, 0x62, 0x95, 0x8e, 0xa3,
        0x9f, 0x89, 0x8f, 0x7f, 0x92, 0x7c, 0xa2, 0xa4, 0xa6, 0x92, 0x89, 0x93,
        0x74, 0x73, 0x73, 0x96, 0xad, 0x9b, 0x87, 0xac, 0x91, 0x8a, 0xa0, 0x70,
        0x70, 0x7e, 0x8f, 0x74, 0x75, 0xaf, 0x8d, 0x82, 0x8e, 0x82, 0x96, 0x7d,
        0x69, 0x9c, 0x64, 0xa2, 0x82, 0x89, 0x83, 0x9d, 0x83, 0x88, 0x62, 0x92,
        0x72, 0x89, 0x6d, 0x7f, 0x92, 0x70, 0x8e, 0x80, 0x7e, 0x8d, 0x91, 0x85,
        0x8d, 0x89, 0x83, 0x96, 0x90, 0x96, 0x9c, 0xa6, 0x8a, 0x73, 0x89, 0x79,
        0xa9, 0x70, 0x80, 0x78, 0x96, 0x80, 0x7b, 0x85, 0xa5, 0x80, 0x93, 0x95,
        0xc5, 0x74, 0x81, 0x88, 0xa2, 0x93, 0x86, 0x9c, 0xa3, 0x6d, 0x92, 0x8a,
        0x92, 0x99, 0x98, 0x65, 0xad, 0x63, 0x9d, 0x95, 0x99, 0x89, 0x7f, 0x7a,
        0x99, 0x91, 0x7f, 0x78, 0x90, 0x8f, 0x80, 0x85, 0xa1, 0x68, 0x9d, 0x6c,
        0x83, 0x8f, 0x7c, 0x5e, 0x99, 0x7b, 0x80, 0x91, 0x66, 0x8a, 0x92, 0xb3,
        0x7a, 0x99, 0x91, 0x7e, 0x7d, 0x96, 0x69, 0x9e, 0x7c, 0x89, 0xad, 0x8f,
        0x9d, 0x90, 0x85, 0x8e, 0x72, 0xa9, 0x89, 0x83, 0x7c, 0x82, 0x70, 0x82,
        0x6b, 0x79, 0x75, 0x8d, 0x77, 0x9b, 0x7c, 0x8f, 0x8a, 0x95, 0x87, 0x9f,
        0x7c, 0x90, 0x87, 0x70, 0x83, 0x83, 0x98, 0x9f, 0x85, 0x86, 0x8d, 0x81,
        0x87, 0x87, 0x87, 0x9d, 0x8f, 0x9d, 0x7c, 0x98, 0xa2, 0xac, 0x88, 0x93,
        0x88, 0x7d, 0x9b, 0x76, 0x82, 0x67, 0x69, 0x7f, 0x8c, 0x8d, 0x94, 0x7d,
        0x7b, 0xae, 0x8c, 0x85, 0x8b, 0xa7, 0x8c, 0x87, 0x96, 0x7d, 0x8b, 0x90,
        0x90, 0x7c, 0x92, 0xa8, 0x81, 0x87, 0xa4, 0xa4, 0x82, 0x8b, 0x8d, 0x89,
        0x8f, 0x70, 0x9d, 0x7f, 0xa0, 0x84, 0x99, 0x65, 0x99, 0x78, 0x94, 0x8b,
        0xc5, 0x8d, 0x8d, 0x55, 0xb3, 0x8d, 0x78, 0x93, 0xb4, 0x6d, 0x84, 0x90,
        0xd5, 0x76, 0x7a, 0x9e, 0xc8, 0x8f, 0x86, 0x8a, 0xaa, 0x8b, 0x7f, 0x90,
        0xaa, 0x95, 0x9c, 0x81, 0xb4, 0x6b, 0x64, 0x8a, 0x99, 0x84, 0x74, 0x6e,
        0x95, 0x75, 0x98, 0x92, 0x9a, 0x91, 0x8c, 0x7d, 0x88, 0x6e, 0x89, 0x7d,
        0x87, 0x80, 0x8e, 0x86, 0x78, 0x9f, 0x96, 0x75, 0x76, 0x82, 0x84, 0xaf,
        0x8a, 0xb3, 0x93, 0x97, 0x86, 0x7c, 0x7e, 0x96, 0x7c, 0x6d, 0x90, 0x8e,
        0x85, 0x88, 0x8a, 0x9f, 0x70, 0x89, 0x9f, 0x99, 0x95, 0x87, 0x91, 0x9d,
        0x80, 0x74, 0x88, 0x7c, 0x7f, 0xa8, 0x93, 0x77, 0x66, 0xa6, 0x80, 0xa2,
        0x88, 0xa0, 0xaf, 0x6f, 0x76, 0x70, 0x82, 0x9a, 0x73, 0x89, 0x9a, 0x75,
        0x75, 0x8e, 0x5f, 0x85, 0x6a, 0x76, 0x98, 0x66, 0x87, 0xa3, 0x7a, 0x73,
        0x9d, 0xa1, 0x98, 0x8e, 0x78, 0x91, 0x83, 0x8c, 0x82, 0x9e, 0x90, 0x87,
        0x8f, 0x9b, 0x8b, 0x8f, 0x89, 0x62, 0x74, 0x82, 0x7b, 0x7f, 0x8a, 0x9d,
        0x89, 0x93, 0x8c, 0x7a, 0x99, 0x77, 0xac, 0x75, 0x9b, 0x7f, 0x7f, 0x56,
        0x8c, 0x96, 0x70, 0x79, 0xc2, 0x7d, 0x90, 0x64, 0xe9, 0x79, 0x68, 0xb2,
        0xc2, 0xa6, 0xa7, 0x7e, 0xd9, 0x98, 0x79, 0x87, 0xc0, 0x97, 0x87, 0x66,
        0xd0, 0x9f, 0x92, 0x82, 0xa4, 0xa8, 0x8d, 0x78, 0xa6, 0xa1, 0x76, 0x7d,
        0xa4, 0x87, 0x89, 0x51, 0xae, 0x88, 0x5b, 0x76, 0x7d, 0x70, 0x74, 0x93,
        0x89, 0x74, 0x9e, 0x7a, 0x79, 0x64, 0x9a, 0x94, 0x65, 0x93, 0xb0, 0x8d,
        0x88, 0x7e, 0x8e, 0xa5, 0x63, 0x94, 0x94, 0x7d, 0x91, 0x87, 0x84, 0x95,
        0x75, 0x9e, 0x81, 0x99, 0x65, 0x76, 0x82, 0x9c, 0x6a, 0xab, 0x84, 0x85,
        0x88, 0x72, 0x92, 0x83, 0x82, 0xaf, 0x6d, 0x9d, 0x9e, 0x73, 0x98, 0x7f,
        0x91, 0xb4, 0x62, 0x8d, 0x74, 0x6e, 0xb4, 0x94, 0x97, 0x9e, 0x6f, 0x9a,
        0x83, 0x7b, 0xa9, 0x7d, 0x87, 0x97, 0x60, 0xa9, 0x7a, 0x75, 0xad, 0x6c,
        0x77, 0xa4, 0x88, 0x82, 0x6f, 0x8a, 0x83, 0x74, 0x9a, 0xa7, 0x83, 0x91,
        0x7c, 0x7c, 0x78, 0x77, 0x83, 0x92, 0x7a, 0x83, 0x90, 0x6f, 0x79, 0x6b,
        0x9b, 0x8d, 0x99, 0x95, 0x7b, 0x89, 0x8e, 0x6c, 0x8e, 0x6c, 0x9b, 0x91,
        0x97, 0x80, 0x83, 0x6f, 0xaa, 0x91, 0x66, 0x76, 0xc9, 0x77, 0x82, 0x4d,
        0xd7, 0x5f, 0x58, 0x9a, 0xb1, 0x7a, 0xb1, 0x6b, 0xe5, 0x9d, 0x76, 0x89,
        0xb6, 0x94, 0x90, 0x5b, 0xb8, 0x92, 0x7d, 0x90, 0xbd, 0x9a, 0x85, 0x4e,
        0xb4, 0x84, 0x61, 0x82, 0x94, 0x8e, 0x70, 0x57, 0x90, 0x89, 0x6f, 0x60,
        0x78, 0x90, 0x78, 0x85, 0x8e, 0x7c, 0x76, 0x74, 0x71, 0x5d, 0x94, 0x93,
        0x71, 0x8f, 0xc2, 0x80, 0x75, 0x7d, 0x77, 0xa8, 0x70, 0x8f, 0xa6, 0x83,
        0x74, 0x6b, 0x79, 0x97, 0x76, 0xa2, 0xad, 0x93, 0x5b, 0x8c, 0x7c, 0x7e,
        0x82, 0x9b, 0xa0, 0x76, 0x71, 0x7a, 0xa3, 0x80, 0x87, 0x90, 0x92, 0xa6,
        0x85, 0x71, 0x99, 0x91, 0x91, 0x8c, 0x99, 0x9b, 0x92, 0x74, 0xb2, 0x79,
        0x9c, 0x7c, 0x7b, 0xa8, 0x8c, 0x6f, 0xb5, 0x69, 0x7a, 0x8a, 0x68, 0x9f,
        0x82, 0x7d, 0xbd, 0x5f, 0xa1, 0x92, 0x83, 0x9f, 0x6f, 0xa1, 0x88, 0x61,
        0x7b, 0x94, 0x89, 0x83, 0x6f, 0x6e, 0x92, 0x9d, 0x65, 0x7f, 0x97, 0x83,
        0x87, 0x75, 0x92, 0x8a, 0x82, 0x82, 0x79, 0x92, 0x78, 0x89, 0x92, 0x7a,
        0x91, 0x64, 0x8a, 0x93, 0x9d, 0x74, 0x78, 0x64, 0xab, 0x57, 0x7a, 0x84,
        0xcf, 0x7d, 0x95, 0x4f, 0xde, 0x63, 0x78, 0x9a, 0xb7, 0x7a, 0x8b, 0x5b,
        0xda, 0xa3, 0x94, 0x99, 0xbd, 0x88, 0xa4, 0x53, 0xad, 0x8b, 0x81, 0x96,
        0xca, 0x8f, 0x76, 0x5e, 0xbd, 0x9d, 0x70, 0x81, 0x9b, 0x7d, 0x8a, 0x44,
        0xa0, 0x77, 0x52, 0x6e, 0x82, 0x62, 0x6a, 0x6b, 0x9d, 0xaa, 0x81, 0x85,
        0x7d, 0x5f, 0x7f, 0x9c, 0x65, 0x99, 0x97, 0x81, 0x7f, 0x65, 0x65, 0xa4,
        0x84, 0x8c, 0xa1, 0x6d, 0x7a, 0x70, 0x79, 0x90, 0x98, 0xaa, 0x76, 0x95,
        0x7f, 0x91, 0x95, 0x96, 0x6e, 0xa5, 0x95, 0xa2, 0x7d, 0x7e, 0x93, 0x87,
        0x7d, 0x9b, 0x85, 0x9b, 0x85, 0x79, 0x96, 0x6b, 0x9d, 0x9d, 0x61, 0x99,
        0x9c, 0x74, 0xcc, 0x7e, 0x9a, 0x83, 0x83, 0x98, 0x6f, 0x6d, 0xc5, 0x69,
        0xb0, 0xa5, 0x5c, 0x91, 0x6c, 0x7b, 0xcc, 0x72, 0x9a, 0x9d, 0x7e, 0xa3,
        0x8a, 0x96, 0x8e, 0x74, 0x7b, 0x80, 0x6b, 0x85, 0x84, 0x56, 0x92, 0x83,
        0x64, 0x90, 0x86, 0x86, 0x88, 0x79, 0x8b, 0xa0, 0x86, 0x72, 0xab, 0x95,
        0x80, 0x81, 0x96, 0x8f, 0x75, 0x7f, 0x71, 0x92, 0x9e, 0x75, 0x62, 0x5e,
        0xc3, 0x7a, 0x6c, 0x84, 0xba, 0x81, 0x8f, 0x49, 0xc9, 0x76, 0x54, 0x89,
        0xc2, 0x8c, 0xa2, 0x54, 0xd8, 0xa4, 0x72, 0x90, 0xb1, 0x91, 0xa0, 0x7a,
        0xbf, 0x9a, 0x6f, 0x82, 0xbb, 0x81, 0x6a, 0x52, 0xc2, 0x82, 0x52, 0x65,
        0x8d, 0x8a, 0x84, 0x46, 0xa2, 0x90, 0x45, 0x52, 0x82, 0x61, 0x8c, 0x77,
        0x92, 0x6d, 0x87, 0x5b, 0x5e, 0x72, 0x76, 0x97, 0x73, 0x8d, 0x8d, 0x70,
        0x7a, 0x66, 0x76, 0x89, 0x72, 0xbf, 0xb0, 0x84, 0x7d, 0x80, 0x71, 0x8f,
        0x85, 0xa9, 0xa3, 0x7d, 0x7b, 0x84, 0x83, 0xa1, 0x97, 0xa7, 0xaf, 0x84,
        0x86, 0x7d, 0x94, 0x78, 0x80, 0x98, 0x71, 0x84, 0x94, 0x73, 0xb0, 0x74,
        0x99, 0xa2, 0x68, 0xa7, 0x8b, 0x86, 0xe0, 0x75, 0x9e, 0x93, 0x5c, 0xb2,
        0xa2, 0x68, 0xb8, 0x61, 0x92, 0xa3, 0x68, 0xa4, 0x89, 0x59, 0xd0, 0x77,
        0x97, 0xa9, 0x6a, 0x9b, 0x7d, 0x69, 0x9b, 0x79, 0x8c, 0x7c, 0x68, 0x8b,
        0x7a, 0x53, 0x99, 0x9c, 0x7e, 0x8d, 0x89, 0x96, 0x9e, 0x83, 0x89, 0x74,
        0x7f, 0x94, 0x92, 0x8f, 0x85, 0x8a, 0x8a, 0x80, 0x99, 0x87, 0x7a, 0x7d,
        0xac, 0x93, 0x74, 0x68, 0xba, 0x87, 0x6a, 0x98, 0xc7, 0x79, 0x91, 0x54,
        0xeb, 0x80, 0x45, 0x80, 0xc4, 0xb4, 0x94, 0x61, 0xd2, 0xa6, 0x7b, 0x95,
        0xa4, 0xaa, 0x93, 0x7b, 0xb1, 0x74, 0x53, 0x7c, 0xaa, 0x91, 0x64, 0x51,
        0xa9, 0x6e, 0x5e, 0x7c, 0x79, 0x82, 0x8b, 0x2e, 0x9d, 0x66, 0x61, 0x5e,
        0x72, 0x7f, 0x6e, 0x6d, 0x8c, 0x79, 0x7d, 0x60, 0x76, 0x79, 0x68, 0x84,
        0x4d, 0x8e, 0xa8, 0x8f, 0x78, 0x74, 0x69, 0xa4, 0x6e, 0xa9, 0xb9, 0x59,
        0x83, 0x7f, 0x7a, 0x93, 0x90, 0x9b, 0x8d, 0x93, 0x78, 0x80, 0x77, 0x8b,
        0x72, 0xa3, 0x97, 0x73, 0x91, 0x6c, 0x9a, 0x97, 0xa3, 0xad, 0x89, 0x96,
        0x9e, 0x6d, 0xb5, 0x7c, 0xa4, 0x98, 0x61, 0x8a, 0x93, 0x5f, 0xdc, 0x63,
        0xba, 0x92, 0x84, 0x94, 0xab, 0x6f, 0xbf, 0x66, 0x98, 0x93, 0x74, 0x85,
        0x96, 0x63, 0xb8, 0x60, 0x94, 0xbb, 0x79, 0x94, 0x7b, 0x67, 0x8a, 0x64,
        0x99, 0xac, 0x60, 0x98, 0xb0, 0x65, 0xa2, 0x73, 0x8f, 0x94, 0x8c, 0x92,
        0x84, 0x84, 0x9b, 0x8f, 0x84, 0x8d, 0x9f, 0x90, 0x91, 0x85, 0x93, 0x74,
        0x97, 0x66, 0x7f, 0x78, 0xa2, 0x95, 0x73, 0x6b, 0xc5, 0x6f, 0x62, 0x79,
        0xbd, 0x81, 0x89, 0x4a, 0xbd, 0x93, 0x57, 0x81, 0xba, 0xb0, 0x9b, 0x4c,
        0xe8, 0xa2, 0x85, 0xa2, 0x96, 0x92, 0x93, 0x62, 0xbe, 0x7a, 0x71, 0x8b,
        0x8d, 0x97, 0x53, 0x56, 0xb1, 0x5f, 0x67, 0x60, 0x7a, 0x8e, 0x8a, 0x3a,
        0x86, 0x67, 0x6d, 0x53, 0x6e, 0x91, 0x7b, 0x60, 0x99, 0x6d, 0x71, 0x5d,
        0x67, 0x65, 0x63, 0x87, 0x71, 0x8a, 0x92, 0x6d, 0x8f, 0x6f, 0x6f, 0xae,
        0x6c, 0xa2, 0x87, 0x6f, 0x99, 0x88, 0x78, 0x94, 0x8a, 0xb2, 0x93, 0x89,
        0x90, 0x8d, 0x8c, 0x98, 0x81, 0x86, 0x90, 0x6d, 0xa2, 0x82, 0xa2, 0xa3,
        0x9d, 0x8f, 0x7a, 0x9f, 0x87, 0x70, 0xbd, 0x8e, 0xa5, 0x99, 0x5d, 0x70,
        0x8c, 0x60, 0xc7, 0x78, 0x97, 0xb0, 0x6f, 0x94, 0x92, 0x5a, 0xc3, 0x6e,
        0x8b, 0x9f, 0x79, 0xa3, 0x8c, 0x5e, 0xbf, 0x79, 0x8e, 0x98, 0x76, 0x8e,
        0x67, 0x31, 0x9b, 0x85, 0x8e, 0x85, 0x71, 0x99, 0x72, 0x77, 0x84, 0x81,
        0x91, 0x95, 0x80, 0x98, 0x82, 0x6f, 0x90, 0xa0, 0x91, 0x91, 0x8e, 0x75,
        0x8a, 0x89, 0x93, 0x69, 0x95, 0x7f, 0x9a, 0xa0, 0x9e, 0x9b, 0x88, 0x4e,
        0xc3, 0x8d, 0x65, 0x74, 0xba, 0x8d, 0x97, 0x4d, 0xd6, 0x94, 0x73, 0xa0,
        0xb1, 0xb3, 0x8c, 0x67, 0xdd, 0x9f, 0x7f, 0xaa, 0xaf, 0x9a, 0x88, 0x67,
        0xc2, 0x8f, 0x71, 0x7b, 0x8f, 0x9f, 0x47, 0x52, 0x93, 0x72, 0x5a, 0x52,
        0x97, 0x9d, 0x67, 0x3c, 0xa9, 0x59, 0x59, 0x5b, 0x88, 0x92, 0x82, 0x57,
        0x83, 0x67, 0x94, 0x77, 0x52, 0x74, 0x60, 0x9e, 0x52, 0x84, 0xa2, 0x69,
        0x71, 0x96, 0x73, 0xb0, 0x5e, 0xb0, 0x89, 0x71, 0x94, 0x8a, 0x66, 0xa0,
        0x75, 0xc1, 0x99, 0x8e, 0x83, 0x8a, 0x91, 0x89, 0x6b, 0xa5, 0x79, 0x82,
        0x8b, 0x73, 0x95, 0xb0, 0x77, 0x9b, 0x82, 0x7d, 0x8f, 0x60, 0xb9, 0x78,
        0x8b, 0x8f, 0x7b, 0x74, 0x84, 0x6d, 0xbf, 0x76, 0x8f, 0xa3, 0x91, 0xa1,
        0x81, 0x59, 0xcb, 0x69, 0xac, 0x90, 0x98, 0x92, 0xa7, 0x5d, 0xb4, 0x8b,
        0xaa, 0xb1, 0x98, 0x8c, 0xa2, 0x4d, 0xa1, 0x69, 0x7f, 0xa0, 0x7d, 0x8a,
        0x9b, 0x77, 0x8e, 0x71, 0x82, 0x8a, 0x78, 0x8d, 0x98, 0x78, 0x90, 0x91,
        0x7e, 0x7f, 0x78, 0x85, 0x97, 0x8a, 0x97, 0x6d, 0xb3, 0x94, 0x89, 0xa3,
        0xa5, 0x9a, 0x76, 0x6b, 0xbd, 0x79, 0x71, 0x95, 0xce, 0xab, 0x93, 0x1f,
        0xe9, 0x97, 0x4c, 0x84, 0xd5, 0x9f, 0x98, 0x6e, 0xdd, 0x8d, 0x80, 0x9c,
        0xa8, 0x9e, 0x8d, 0x75, 0xbc, 0x8c, 0x80, 0x89, 0xa1, 0x89, 0x74, 0x58,
        0x92, 0x86, 0x55, 0x87, 0x91, 0x8d, 0x70, 0x33, 0xb8, 0x50, 0x63, 0x6b,
        0x79, 0x99, 0x76, 0x71, 0x75, 0x59, 0x73, 0x6b, 0x62, 0x62, 0x74, 0x85,
        0x73, 0xa3, 0xac, 0x78, 0x77, 0x88, 0x64, 0xa0, 0x73, 0xa1, 0xa8, 0x73,
        0x91, 0x8e, 0x5f, 0x9a, 0x68, 0xc9, 0xa1, 0x92, 0x7a, 0x7c, 0x69, 0x77,
        0x7d, 0x9e, 0x8f, 0x76, 0x88, 0x80, 0x92, 0x93, 0x91, 0x99, 0x8c, 0x85,
        0x9f, 0x69, 0xa8, 0x9b, 0x9f, 0x9a, 0x64, 0x7a, 0x99, 0x70, 0xc4, 0x6d,
        0x9a, 0x99, 0x82, 0xa0, 0x8b, 0x59, 0xc8, 0x61, 0x8f, 0x95, 0x72, 0x8c,
        0x90, 0x63, 0xa9, 0x7e, 0x88, 0x8c, 0x85, 0x78, 0x76, 0x58, 0x8e, 0x72,
        0xa3, 0x9a, 0x7c, 0xa0, 0x7f, 0x6d, 0xa6, 0x83, 0x7e, 0x8d, 0x83, 0x88,
        0x86, 0x68, 0x8d, 0x96, 0xaa, 0x78, 0x90, 0xa5, 0x9c, 0x9d, 0x99, 0x88,
        0xb0, 0x82, 0x6f, 0x7e, 0xad, 0xa9, 0x7b, 0x6a, 0xba, 0x6c, 0x6d, 0x89,
        0xc1, 0x9e, 0x8e, 0x2f, 0xf2, 0x77, 0x50, 0x73, 0xdb, 0xc4, 0x9c, 0x6c,
        0xd0, 0x90, 0x88, 0xbe, 0x97, 0xb9, 0x9e, 0x6e, 0xbe, 0x8e, 0x83, 0x8e,
        0x96, 0x98, 0x4c, 0x4e, 0xa7, 0x8d, 0x43, 0x92, 0x8f, 0x92, 0x6d, 0x27,
        0x94, 0x73, 0x5f, 0x42, 0x7c, 0xa7, 0x8a, 0x5a, 0x81, 0x60, 0x85, 0x66,
        0x73, 0x72, 0x74, 0x9d, 0x5a, 0x9e, 0xa3, 0x71, 0x75, 0x91, 0x4f, 0xa2,
        0x67, 0xa6, 0x91, 0x64, 0x92, 0x7e, 0x95, 0x8d, 0x6e, 0xbe, 0x9b, 0x57,
        0x9b, 0x82, 0x89, 0x70, 0x6f, 0x9e, 0x7e, 0x86, 0x97, 0x81, 0x85, 0x8e,
        0x70, 0x96, 0x6c, 0x72, 0xab, 0x6d, 0x9c, 0x91, 0xa0, 0x8a, 0x8d, 0x88,
        0x9e, 0x75, 0xc6, 0x76, 0x7c, 0xa7, 0x6b, 0xa8, 0x94, 0x72, 0xb6, 0x78,
        0x8d, 0x90, 0x7b, 0x8c, 0xa6, 0x65, 0xad, 0x9b, 0xaa, 0x94, 0x89, 0x7d,
        0x90, 0x69, 0xaa, 0x7e, 0x9e, 0xad, 0x7f, 0x94, 0x81, 0x7d, 0xa1, 0x7b,
        0x6c, 0x65, 0x83, 0x95, 0x89, 0x75, 0x93, 0x87, 0x94, 0x87, 0xa8, 0x92,
        0x8d, 0xa6, 0x9f, 0x78, 0xaa, 0x72, 0x95, 0x94, 0xac, 0xa6, 0x91, 0x5a,
        0xdb, 0x82, 0x55, 0xb6, 0xc1, 0xa3, 0x84, 0x4f, 0xc9, 0x88, 0x53, 0x8f,
        0xbb, 0xae, 0x9b, 0x8a, 0xd8, 0xa9, 0x68, 0xc2, 0xa0, 0xa9, 0x87, 0x6b,
        0xbd, 0x99, 0x7e, 0x86, 0x88, 0xa7, 0x5e, 0x53, 0xa4, 0x84, 0x6b, 0x6e,
        0x89, 0x95, 0x84, 0x2d, 0xb5, 0x43, 0x3e, 0x50, 0x71, 0x96, 0x9a, 0x5b,
        0xa1, 0x60, 0x80, 0x70, 0x6a, 0x73, 0x8f, 0x95, 0x52, 0x9b, 0xae, 0x71,
        0x76, 0x7d, 0x61, 0x99, 0x5b, 0xc3, 0xa8, 0x76, 0x98, 0x72, 0x7f, 0x8a,
        0x66, 0xc7, 0xa3, 0x7b, 0x8e, 0x8f, 0x70, 0x74, 0x6a, 0xae, 0x85, 0x83,
        0x96, 0x7d, 0x98, 0xa7, 0x8f, 0x94, 0x7e, 0x84, 0x96, 0x7a, 0xab, 0x7d,
        0x83, 0xb1, 0x6f, 0x7d, 0x9f, 0x80, 0xca, 0x8f, 0x9b, 0xa9, 0x69, 0x7a,
        0x92, 0x73, 0xaa, 0x74, 0x88, 0x98, 0x87, 0x8f, 0xa7, 0x68, 0xa0, 0x74,
        0x97, 0x95, 0x6e, 0x6f, 0x83, 0x53, 0x9b, 0x79, 0x71, 0x87, 0x7d, 0x8b,
        0x79, 0x87, 0xa3, 0x75, 0x68, 0x73, 0x7e, 0x89, 0x8f, 0x81, 0x98, 0x7a,
        0x9a, 0x83, 0x9d, 0x95, 0x90, 0x98, 0x97, 0x57, 0x93, 0x7e, 0xa2, 0x9a,
        0xa8, 0x8a, 0x85, 0x53, 0xbd, 0x7a, 0x61, 0x8b, 0xca, 0xac, 0x9b, 0x2e,
        0xe8, 0xa5, 0x66, 0x86, 0xca, 0xa7, 0xa0, 0x85, 0xcf, 0xa4, 0x6a, 0xc2,
        0xb0, 0xaa, 0x76, 0x76, 0xb6, 0xa2, 0x72, 0xa9, 0xa1, 0xa1, 0x67, 0x67,
        0xac, 0x90, 0x70, 0x6d, 0x8f, 0xb5, 0x6d, 0x3b, 0x85, 0x64, 0x4a, 0x6e,
        0x72, 0x9f, 0x98, 0x5b, 0x97, 0x3e, 0x8a, 0x6a, 0x6c, 0x7d, 0x77, 0x98,
        0x5a, 0x92, 0xa3, 0x81, 0x6f, 0x91, 0x7b, 0xa6, 0x6e, 0x9c, 0x9b, 0x5f,
        0x9e, 0x7e, 0x77, 0x9d, 0x88, 0xc6, 0x81, 0x5a, 0x93, 0x8b, 0x6c, 0x71,
        0x63, 0x9e, 0x78, 0x79, 0x70, 0x90, 0x95, 0x9f, 0x71, 0xa9, 0x90, 0x73,
        0x98, 0x8a, 0xa5, 0x8e, 0x87, 0xb0, 0x79, 0x79, 0x92, 0x7d, 0xcc, 0xa8,
        0x7a, 0x92, 0x82, 0x91, 0x90, 0x69, 0xa4, 0x9b, 0x97, 0x8f, 0x75, 0x7c,
        0xa3, 0x69, 0xb5, 0x87, 0x8d, 0x88, 0x7b, 0x94, 0x8b, 0x55, 0xa2, 0x6d,
        0x89, 0x8e, 0x81, 0x8a, 0x9e, 0x87, 0x86, 0x83, 0x8b, 0x84, 0x87, 0xa7,
        0x8e, 0x79, 0xa4, 0x9c, 0x99, 0x82, 0xa3, 0x8f, 0x91, 0x9a, 0x95, 0x5b,
        0x9f, 0x6e, 0x85, 0x93, 0xa6, 0x9a, 0x91, 0x4c, 0xd8, 0x6b, 0x6d, 0x85,
        0xde, 0xaa, 0x97, 0x51, 0xcf, 0x8c, 0x5f, 0x9a, 0xc2, 0x9d, 0x9a, 0x7c,
        0xc6, 0xb1, 0x84, 0xac, 0xba, 0xa5, 0x7c, 0x76, 0xbd, 0x93, 0x7f, 0xa0,
        0x86, 0xae, 0x47, 0x41, 0x88, 0x82, 0x62, 0x62, 0x73, 0xad, 0x6b, 0x23,
        0xa0, 0x48, 0x5a, 0x5a, 0x8f, 0x98, 0xbd, 0x5c, 0x9c, 0x72, 0x7c, 0x68,
        0x50, 0x78, 0x91, 0xab, 0x5c, 0xc1, 0xc6, 0x66, 0x87, 0x86, 0x60, 0x99,
        0x65, 0xac, 0x94, 0x91, 0x7e, 0x8c, 0x7d, 0x9b, 0x70, 0xb2, 0x9a, 0x7d,
        0x82, 0x91, 0x6b, 0x86, 0x6f, 0xbb, 0x7f, 0x66, 0x7a, 0x79, 0x94, 0x96,
        0x71, 0xa5, 0x75, 0x73, 0x95, 0x81, 0xa4, 0x8b, 0x87, 0xaa, 0x8e, 0x92,
        0xa9, 0x82, 0xb0, 0x92, 0x89, 0xa7, 0x83, 0x81, 0x8c, 0x6d, 0xc4, 0x7a,
        0x89, 0xa5, 0xa1, 0xa2, 0xa4, 0x6b, 0xa4, 0x82, 0x90, 0xb2, 0x8d, 0x72,
        0x83, 0x60, 0xa7, 0x7a, 0x80, 0x97, 0x65, 0x90, 0x87, 0x85, 0xae, 0x71,
        0x7d, 0x71, 0x98, 0xa8, 0x90, 0x75, 0xa9, 0x96, 0xa2, 0x91, 0x7b, 0x6b,
        0xa0, 0x9d, 0x8d, 0x5d, 0xa4, 0x79, 0x8c, 0xa4, 0xad, 0x94, 0x7e, 0x77,
        0xb6, 0x92, 0x74, 0xaf, 0xb5, 0x9b, 0x99, 0x67, 0xe7, 0x8e, 0x6a, 0x87,
        0xc1, 0x98, 0x9b, 0x7e, 0xd7, 0x9b, 0x5b, 0xae, 0xc9, 0x94, 0x7a, 0x6d,
        0x9e, 0xb4, 0x86, 0x8e, 0xa3, 0xa1, 0x5e, 0x5d, 0x8e, 0x8f, 0x6b, 0x59,
        0xa5, 0xa9, 0x69, 0x20, 0xa4, 0x64, 0x35, 0x61, 0x83, 0x9d, 0x8a, 0x4e,
        0x8b, 0x6c, 0x5e, 0x5b, 0x68, 0x76, 0x89, 0x94, 0x5f, 0x87, 0x98, 0x7a,
        0x5d, 0x81, 0x89, 0xa6, 0x54, 0xa3, 0xb4, 0x7b, 0x83, 0x8a, 0x90, 0x8b,
        0x86, 0xbc, 0x86, 0x59, 0x91, 0x79, 0x71, 0x6b, 0x7c, 0x94, 0x98, 0x7f,
        0x81, 0x76, 0x85, 0xad, 0x69, 0xa8, 0x83, 0x8c, 0x8f, 0x70, 0x9a, 0x91,
        0x78, 0xb3, 0x8f, 0x6d, 0x90, 0x86, 0xbd, 0x97, 0x7f, 0xaf, 0x7e, 0x90,
        0x8f, 0x63, 0xa2, 0x93, 0x6e, 0xab, 0x75, 0x72, 0x8d, 0x74, 0xa1, 0x72,
        0x82, 0xaa, 0x70, 0x82, 0x8d, 0x67, 0x94, 0x91, 0x92, 0xa5, 0x7f, 0xa5,
        0x6f, 0x6d, 0xaf, 0x80, 0x89, 0x7d, 0x92, 0x99, 0x92, 0x72, 0x9d, 0x7d,
        0x92, 0x78, 0xa9, 0x89, 0xa9, 0x9b, 0xa3, 0x73, 0x98, 0x71, 0x98, 0x86,
        0x9e, 0x97, 0x9e, 0x6a, 0xb9, 0x6a, 0x6e, 0x90, 0xde, 0x94, 0x9a, 0x52,
        0xdd, 0xa9, 0x6a, 0x79, 0xb9, 0xa3, 0xaa, 0x95, 0xba, 0xa2, 0x75, 0xc2,
        0xbf, 0xb5, 0x6d, 0x8d, 0xae, 0x9b, 0x8d, 0x9a, 0x92, 0xb4, 0x5e, 0x4b,
        0x8b, 0x99, 0x4f, 0x65, 0x94, 0xb6, 0x5d, 0x3a, 0xa3, 0x77, 0x51, 0x4e,
        0x6d, 0xa3, 0x94, 0x59, 0x80, 0x56, 0x8c, 0x67, 0x67, 0x74, 0x99, 0x85,
        0x57, 0x7b, 0x9e, 0x7e, 0x84, 0x85, 0x94, 0x96, 0x71, 0xbf, 0x97, 0x5f,
        0x7d, 0x80, 0x93, 0x87, 0x6b, 0xb9, 0x7d, 0x8b, 0x84, 0x84, 0x6b, 0x8c,
        0x6c, 0xc4, 0x85, 0x82, 0x87, 0x8d, 0x64, 0x90, 0x80, 0xb6, 0x9a, 0x70,
        0x9c, 0x68, 0xa0, 0x88, 0x81, 0x9d, 0x83, 0x75, 0x9d, 0x84, 0xbf, 0x8f,
        0x83, 0x9b, 0x75, 0x82, 0x9c, 0x76, 0xa4, 0x9d, 0x8a, 0xa7, 0x8e, 0x96,
        0x9c, 0x64, 0xc0, 0x95, 0x88, 0xa5, 0x6f, 0x74, 0x7e, 0x5d, 0x9f, 0x7d,
        0x89, 0x81, 0x71, 0xa8, 0x82, 0x6e, 0x9b, 0x9a, 0x6f, 0xa5, 0x88, 0x89,
        0xa4, 0x7e, 0xa4, 0x90, 0xa1, 0x83, 0x8b, 0x9c, 0x9a, 0x89, 0xa2, 0x89,
        0x9d, 0x5d, 0x86, 0xa5, 0xc4, 0x96, 0x9c, 0x85, 0xd6, 0x7c, 0x69, 0x88,
        0xc9, 0xa5, 0x9b, 0x60, 0xea, 0xab, 0x62, 0x9f, 0xd1, 0xa5, 0x86, 0x7e,
        0xb3, 0xbd, 0x7a, 0xa1, 0xbd, 0xa0, 0x7c, 0x92, 0xa6, 0xa3, 0x7d, 0xa9,
        0x98, 0xa6, 0x71, 0x5c, 0x9b, 0x9b, 0x58, 0x6f, 0x8f, 0xaa, 0x5e, 0x3b,
        0xa6, 0x5f, 0x3a, 0x79, 0x94, 0xa5, 0x84, 0x6f, 0x83, 0x5d, 0x75, 0x65,
        0x6c, 0x77, 0x86, 0xad, 0x4a, 0x92, 0x8e, 0x8a, 0x8f, 0x7b, 0x72, 0x96,
        0x79, 0xa6, 0xa8, 0x6d, 0x7b, 0x7b, 0x98, 0xa9, 0x79, 0xb9, 0x9e, 0x8f,
        0x90, 0x6d, 0x76, 0x82, 0x81, 0xc1, 0x95, 0x7c, 0x97, 0x8d, 0x95, 0xa2,
        0x7c, 0xa4, 0x7b, 0x9b, 0x7f, 0x6f, 0xac, 0x83, 0x7e, 0xa1, 0x7c, 0x7c,
        0xa1, 0x7a, 0xa1, 0x6d, 0x95, 0x86, 0x77, 0x98, 0x8e, 0x58, 0xa2, 0x76,
        0x8e, 0xa8, 0x94, 0x90, 0xa7, 0x62, 0xb8, 0x8a, 0x9f, 0xac, 0x87, 0x91,
        0x88, 0x50, 0xa7, 0x83, 0x88, 0x65, 0x7a, 0x92, 0x9d, 0x70, 0xa9, 0x99,
        0x7c, 0x87, 0x8c, 0x96, 0x8e, 0x73, 0xa4, 0xa7, 0x9b, 0x70, 0x99, 0x96,
        0x8f, 0x88, 0xb4, 0x85, 0xa8, 0x6a, 0x9e, 0x78, 0xb0, 0x82, 0x9f, 0x89,
        0xc9, 0x8d, 0x71, 0x7f, 0xc0, 0x98, 0xa0, 0x6d, 0xd2, 0x8e, 0x64, 0x9e,
        0xb2, 0xa9, 0x93, 0x6e, 0xcc, 0xbb, 0x89, 0xb1, 0xc1, 0x9b, 0x86, 0x94,
        0xb5, 0xb5, 0x95, 0xa0, 0x9c, 0x9b, 0x62, 0x5f, 0x7b, 0x91, 0x69, 0x74,
        0x9e, 0xa3, 0x81, 0x30, 0x85, 0x59, 0x49, 0x5e, 0x83, 0x85, 0x7d, 0x6a,
        0x90, 0x51, 0x80, 0x5e, 0x64, 0x6f, 0x99, 0x93, 0x75, 0x9a, 0xa7, 0x72,
        0x6c, 0x5d, 0xa3, 0x93, 0x87, 0xa7, 0xbd, 0x6f, 0x92, 0x6d, 0x85, 0x98,
        0x6f, 0xc7, 0xb6, 0x7c, 0x80, 0x71, 0x8a, 0x9f, 0x71, 0xb5, 0x8c, 0x6d,
        0xac, 0x7b, 0x72, 0xb7, 0x69, 0xa6, 0x9d, 0x66, 0xab, 0x7a, 0x8b, 0x70,
        0x8c, 0x9e, 0x86, 0x75, 0x96, 0x7b, 0xa3, 0x93, 0x8f, 0xb7, 0x84, 0x8c,
        0x87, 0x56, 0xae, 0x82, 0x71, 0xa3, 0x8d, 0x93, 0xaf, 0x59, 0xb3, 0x8a,
        0x97, 0x99, 0x75, 0x73, 0x8e, 0x51, 0xae, 0x84, 0x8b, 0x7a, 0x76, 0x77,
        0x6e, 0x75, 0xa4, 0x8a, 0x75, 0x8e, 0x8f, 0xa2, 0x96, 0x76, 0x9a, 0x80,
        0x96, 0x7d, 0x94, 0x71, 0x8a, 0x90, 0xac, 0x82, 0xa5, 0x61, 0xa3, 0x84,
        0xac, 0x8f, 0x74, 0x5c, 0xb6, 0x77, 0x8b, 0x9b, 0xb5, 0x8b, 0xb6, 0x52,
        0xd7, 0xaa, 0x4b, 0x8c, 0xbf, 0xb8, 0x9f, 0x6d, 0xcb, 0xa3, 0x6e, 0x97,
        0xaa, 0x8d, 0x7c, 0x99, 0xc0, 0xd0, 0x9e, 0xb7, 0x93, 0xaa, 0x5a, 0x6a,
        0x7d, 0x9a, 0x63, 0x71, 0x78, 0x8c, 0x67, 0x43, 0x87, 0x52, 0x64, 0x68,
        0x68, 0x9c, 0x65, 0x60, 0x7a, 0x35, 0x68, 0x66, 0x63, 0x69, 0x8d, 0x8f,
        0x72, 0x9b, 0x99, 0x5b, 0x80, 0x67, 0x93, 0xa2, 0x97, 0x9d, 0x8c, 0x68,
        0x80, 0x86, 0x96, 0x91, 0x64, 0xbf, 0x98, 0x63, 0x83, 0x85, 0x61, 0x97,
        0x6a, 0xac, 0xb4, 0x99, 0x8d, 0x7b, 0x7b, 0xad, 0x8b, 0xb2, 0x9e, 0x7f,
        0x9a, 0x73, 0x91, 0x84, 0x89, 0x9f, 0x8a, 0x87, 0x8b, 0x72, 0x8e, 0x79,
        0x86, 0xa7, 0x77, 0x84, 0x90, 0x58, 0xb2, 0x90, 0x93, 0xa0, 0x7f, 0x8a,
        0x91, 0x5a, 0xb1, 0x80, 0x99, 0xc1, 0x80, 0x7d, 0x97, 0x5c, 0x9a, 0x8c,
        0x71, 0x96, 0x7e, 0x7f, 0xad, 0x7b, 0xb9, 0x8a, 0x84, 0x84, 0x81, 0x97,
        0x94, 0x64, 0x9f, 0x7e, 0x9b, 0x8d, 0x7d, 0x8d, 0x9a, 0x9e, 0xac, 0x72,
        0xb2, 0x73, 0x81, 0x84, 0xc8, 0x81, 0x88, 0x72, 0xbe, 0x85, 0x86, 0x97,
        0xd3, 0x8a, 0xc7, 0x75, 0xce, 0x9c, 0x69, 0xa6, 0xb0, 0xa1, 0x8e, 0x64,
        0xb1, 0xa6, 0x67, 0xaa, 0xcd, 0x95, 0x97, 0xa2, 0xb2, 0xb2, 0x85, 0x9a,
        0x9d, 0xa3, 0x5e, 0x73, 0x6e, 0xae, 0x50, 0x83, 0x8c, 0xab, 0x92, 0x43,
        0x6b, 0x66, 0x43, 0x5c, 0x8f, 0x8a, 0x9a, 0x6c, 0x84, 0x48, 0x80, 0x6b,
        0x8d, 0x82, 0xaf, 0x89, 0x71, 0x9f, 0xa4, 0x9a, 0x7b, 0x68, 0x91, 0xaa,
        0x6b, 0xa3, 0x9c, 0x62, 0x8d, 0x6d, 0x87, 0x87, 0x81, 0x9a, 0x97, 0x6c,
        0x9c, 0x76, 0x63, 0xbc, 0x62, 0xbc, 0xb0, 0x97, 0xa7, 0x81, 0x70, 0x8f,
        0x7d, 0xb2, 0xa6, 0x98, 0xa1, 0x7b, 0x8e, 0x83, 0x8c, 0xa2, 0x7e, 0x73,
        0x99, 0x65, 0xc1, 0x77, 0x8e, 0xbc, 0x72, 0xa6, 0x8c, 0x55, 0xab, 0x8e,
        0x7d, 0xa3, 0x79, 0x80, 0x9e, 0x6b, 0xa9, 0x6c, 0x80, 0xb6, 0x81, 0xa6,
        0x92, 0x5b, 0xb7, 0x99, 0x81, 0x7e, 0x8e, 0x89, 0x97, 0x86, 0x93, 0x86,
        0x7b, 0x9a, 0x7f, 0x9a, 0x8e, 0x69, 0xa3, 0xa4, 0x9f, 0x8b, 0x96, 0x6f,
        0x8b, 0x97, 0xb4, 0x74, 0x96, 0x53, 0x99, 0x91, 0xa7, 0xa8, 0x69, 0x72,
        0xc9, 0x85, 0x99, 0x93, 0xc0, 0x90, 0xaa, 0x7f, 0xc7, 0x71, 0x74, 0x8d,
        0xb7, 0xab, 0x91, 0x69, 0xb4, 0x9b, 0x7d, 0x95, 0xc3, 0xb0, 0x9b, 0xa9,
        0xb3, 0x9f, 0x79, 0xa5, 0x9f, 0xad, 0x6b, 0x85, 0x90, 0xad, 0x69, 0x62,
        0x7e, 0xa6, 0x69, 0x4e, 0x80, 0x7e, 0x52, 0x57, 0x5f, 0x95, 0x72, 0x4c,
        0x87, 0x4e, 0x5a, 0x62, 0x7d, 0x70, 0x92, 0x98, 0x76, 0x8e, 0x99, 0x7d,
        0x73, 0x6d, 0x86, 0x8e, 0x6b, 0x80, 0xa7, 0x9d, 0x91, 0x73, 0x95, 0x70,
        0x80, 0xc3, 0x9f, 0x8b, 0x72, 0x86, 0x6b, 0xad, 0x76, 0xbe, 0xad, 0x8e,
        0x9c, 0x78, 0x6a, 0xbf, 0x7d, 0xa8, 0x88, 0x8a, 0x8b, 0x8c, 0x9c, 0x8c,
        0x8a, 0x85, 0x73, 0x92, 0xa2, 0x7b, 0xa5, 0x96, 0x9b, 0xa3, 0x6c, 0x80,
        0xa6, 0x63, 0xac, 0x98, 0xa3, 0x9a, 0x83, 0x8a, 0x8c, 0x63, 0xb9, 0x8c,
        0x99, 0xa1, 0x7a, 0x6c, 0x9e, 0x59, 0x90, 0x84, 0x8a, 0x93, 0x8f, 0x87,
        0x98, 0x84, 0x99, 0xa4, 0x72, 0x6d, 0x95, 0xa2, 0x95, 0x72, 0xc3, 0x88,
        0x8f, 0x6a, 0x77, 0x7d, 0x8b, 0xae, 0xa3, 0x7c, 0xa8, 0x5d, 0x7c, 0xa8,
        0xa1, 0x85, 0x7e, 0x8c, 0xac, 0x8d, 0x73, 0x88, 0xc1, 0x89, 0xaa, 0x89,
        0xb2, 0x92, 0x75, 0x9a, 0x9c, 0x8e, 0xb9, 0xaa, 0xaa, 0xac, 0x78, 0x85,
        0xbc, 0x9f, 0x6d, 0xb7, 0x89, 0xa6, 0xb3, 0x8e, 0xa5, 0xbb, 0x6b, 0x9d,
        0x8f, 0x8b, 0x69, 0x7a, 0x82, 0x99, 0x8c, 0x49, 0x87, 0x74, 0x37, 0x63,
        0x5d, 0x92, 0x77, 0x66, 0x63, 0x56, 0x77, 0x5d, 0x7f, 0x68, 0x97, 0x74,
        0x84, 0x94, 0x7d, 0x7d, 0x91, 0x78, 0x87, 0x96, 0x7f, 0x97, 0x94, 0x6f,
        0x89, 0x6c, 0x96, 0x71, 0x83, 0x8f, 0x8a, 0x89, 0x7d, 0x84, 0x8a, 0xa6,
        0x7b, 0x95, 0x89, 0x77, 0x94, 0x80, 0x7f, 0x93, 0x5e, 0xbb, 0x9c, 0xa8,
        0xa2, 0x7e, 0xa6, 0x86, 0x7d, 0x8b, 0x92, 0x73, 0xac, 0x78, 0xaa, 0x98,
        0xb1, 0x94, 0x79, 0x8b, 0x8f, 0x70, 0xa7, 0xae, 0x92, 0xad, 0xb1, 0x8b,
        0xb0, 0x78, 0xbc, 0xa9, 0xa4, 0xa3, 0x9e, 0x76, 0x89, 0x67, 0xab, 0x98,
        0x75, 0x8c, 0x86, 0x95, 0x9e, 0x77, 0x96, 0x85, 0x8c, 0x8e, 0x8b, 0x8a,
        0x8a, 0x4b, 0x71, 0x8a, 0x9b, 0x6d, 0x6e, 0x89, 0x81, 0x82, 0xa7, 0x98,
        0xa5, 0x66, 0x72, 0x8b, 0x99, 0x9a, 0x8b, 0x8b, 0x9f, 0x87, 0x79, 0x84,
        0x99, 0x6d, 0x90, 0x7d, 0x9d, 0xa7, 0x81, 0xa3, 0x9d, 0x96, 0x82, 0x86,
        0xa2, 0x8e, 0x8d, 0x7f, 0x84, 0x8c, 0x98, 0xbc, 0x83, 0xb4, 0xb5, 0x78,
        0x7d, 0xab, 0x8d, 0x87, 0x71, 0x8d, 0x6e, 0x8f, 0x89, 0xaa, 0x7c, 0x6f,
        0x71, 0x69, 0x65, 0x60, 0x81, 0x91, 0x94, 0x6d, 0x76, 0x66, 0x74, 0x5e,
        0x77, 0x7c, 0xa2, 0xa6, 0x70, 0x90, 0xa3, 0x68, 0x83, 0x69, 0x71, 0x72,
        0x6c, 0xa9, 0x85, 0x71, 0x88, 0x60, 0x90, 0x84, 0x8a, 0xba, 0x8b, 0x8c,
        0x72, 0x8f, 0x98, 0x84, 0x8b, 0x8a, 0xb1, 0xa2, 0x93, 0x8d, 0x86, 0x99,
        0xa2, 0x99, 0xb0, 0xa6, 0x92, 0x78, 0x86, 0x87, 0x9c, 0x9d, 0x6f, 0x92,
        0x9a, 0x8a, 0xbf, 0xaa, 0xa3, 0xa2, 0x71, 0x8d, 0x93, 0x70, 0xb5, 0x9c,
        0xa8, 0x97, 0xb4, 0x93, 0xa6, 0x75, 0xbb, 0xa3, 0x92, 0x95, 0x95, 0x94,
        0x90, 0x5b, 0xbf, 0x92, 0x8a, 0x95, 0xa0, 0xa1, 0x68, 0x7e, 0x9a, 0x7f,
        0x88, 0xa7, 0x93, 0xa1, 0x7a, 0x93, 0x95, 0x8b, 0x96, 0x94, 0x70, 0xa0,
        0x70, 0x8f, 0x9d, 0x96, 0x8e, 0x9c, 0x90, 0x9f, 0x7e, 0x83, 0x84, 0x9e,
        0x7f, 0x65, 0x72, 0x84, 0x64, 0x94, 0x75, 0xa7, 0x62, 0xa3, 0x8a, 0x9b,
        0x82, 0x99, 0x87, 0x70, 0x81, 0x6d, 0xac, 0x7b, 0x74, 0x68, 0x5d, 0x95,
        0xa0, 0x6e, 0x84, 0xab, 0x79, 0x8e, 0x8b, 0x79, 0x7b, 0x83, 0xa0, 0x7b,
        0x96, 0x71, 0x5d, 0xad, 0xa4, 0x82, 0x79, 0x96, 0x73, 0x84, 0x7d, 0x98,
        0x87, 0x93, 0x86, 0xa6, 0x7f, 0x7c, 0x71, 0x9d, 0xa4, 0x9b, 0x8a, 0x7c,
        0x87, 0x6a, 0x7f, 0x8d, 0x97, 0x92, 0xa0, 0x88, 0x77, 0x7d, 0x70, 0x9c,
        0x9f, 0xa0, 0x71, 0xa3, 0x73, 0x95, 0x76, 0x79, 0x94, 0x95, 0x83, 0x8b,
        0x8d, 0x82, 0x7a, 0x77, 0xa6, 0x88, 0x72, 0x7a, 0x90, 0x76, 0x7f, 0x95,
        0x83, 0x90, 0x9e, 0x7c, 0x8e, 0x9a, 0x6b, 0xa4, 0x98, 0x9f, 0x86, 0x8c,
        0x76, 0x70, 0x74, 0x97, 0x7e, 0xa4, 0x5f, 0xa3, 0xa7, 0x7f, 0x67, 0x8d,
        0x82, 0x95, 0x93, 0x99, 0x82, 0x70, 0x75, 0xa8, 0xa1, 0xaf, 0x8a, 0x8a,
        0xb0, 0x89, 0x88, 0x6b, 0x98, 0xaf, 0x75, 0x7f, 0x86, 0x90, 0x8f, 0x8c,
        0x84, 0x8d, 0x7f, 0x8b, 0x94, 0x9f, 0x80, 0x8b, 0x93, 0xa2, 0x98, 0xa5,
        0x83, 0x81, 0x8a, 0xaa, 0x86, 0xa3, 0xb0, 0xac, 0x64, 0x9c, 0x7c, 0x93,
        0xac, 0x85, 0x7f, 0x88, 0x7a, 0xa5, 0x75, 0x69, 0x94, 0xa8, 0x95, 0xa9,
        0x6f, 0x9f, 0x85, 0x8a, 0xa5, 0x97, 0x98, 0xa9, 0x76, 0x80, 0x7e, 0x95,
        0x89, 0xaf, 0x68, 0x7b, 0xb4, 0x8a, 0x6b, 0xa4, 0x7b, 0x90, 0x79, 0xba,
        0x9f, 0x82, 0x7d, 0x89, 0x85, 0x82, 0x94, 0xa5, 0x78, 0x8f, 0x6f, 0x71,
        0x62, 0x66, 0x73, 0x98, 0x8c, 0x7d, 0x81, 0xa2, 0x69, 0x7c, 0x76, 0xa4,
        0x94, 0x8f, 0x6f, 0x8a, 0x94, 0x8e, 0x8a, 0x88, 0x8c, 0xa3, 0x6f, 0xa2,
        0x7d, 0x90, 0x8f, 0x96, 0x6c, 0x76, 0x6e, 0x8e, 0x82, 0x85, 0x7f, 0x93,
        0x81, 0x83, 0x7b, 0x9f, 0x91, 0x89, 0x75, 0x9c, 0x9f, 0x86, 0x7a, 0x8c,
        0x7a, 0x7b, 0x82, 0xae, 0x6a, 0x7d, 0x82, 0x82, 0xa0, 0x85, 0x99, 0x9f,
        0x88, 0x8b, 0x8c, 0x8f, 0x90, 0x96, 0x8e, 0x98, 0xa3, 0x87, 0x7f, 0x9b,
        0x94, 0x73, 0x96, 0x86, 0x72, 0x7c, 0x75, 0x7c, 0x90, 0x79, 0x83, 0x80,
        0x79, 0x9e, 0x9c, 0x8e, 0x99, 0x8c, 0x7a, 0x9c, 0x8d, 0x99, 0x9d, 0x84,
        0xa5, 0x93, 0x85, 0x96, 0x88, 0x94, 0x80, 0x90, 0x73, 0xa3, 0x7c, 0xa1,
        0x88, 0xa4, 0x98, 0x9f, 0x9e, 0x92, 0x6c, 0xa0, 0x84, 0x87, 0x8a, 0x83,
        0x7b, 0x91, 0x8c, 0x9e, 0x73, 0xa6, 0x93, 0xa0, 0x8d, 0x98, 0x74, 0xa1,
        0x83, 0x9a, 0x80, 0xbc, 0x62, 0x70, 0x9e, 0xad, 0x9e, 0x8f, 0x8f, 0x9e,
        0x7e, 0xac, 0xb0, 0xa9, 0x79, 0x6f, 0x79, 0x8f, 0x7e, 0x71, 0x8d, 0xab,
        0x97, 0x76, 0x86, 0xa2, 0x98, 0x95, 0x8b, 0x9b, 0x75, 0x7a, 0x71, 0x85,
        0x7f, 0x61, 0x76, 0x8e, 0x99, 0x91, 0x88, 0x73, 0x71, 0x65, 0x82, 0xa0,
        0x9b, 0x8f, 0x79, 0x70, 0x78, 0x66, 0x85, 0x94, 0x8b, 0x91, 0x75, 0x80,
        0x9c, 0x94, 0x7f, 0xa5, 0x82, 0x91, 0x7d, 0x76, 0x80, 0x78, 0x83, 0x82,
        0x79, 0x98, 0x83, 0x87, 0x94, 0x71, 0x73, 0x77, 0x71, 0x94, 0x6a, 0xa8,
        0x9e, 0x8d, 0x90, 0x78, 0x7a, 0x81, 0x9c, 0x91, 0x96, 0x80, 0x79, 0x83,
        0x92, 0x9f, 0x8a, 0x84, 0x8e, 0x97, 0x8c, 0x81, 0x87, 0x74, 0x8b, 0x8e,
        0xa7, 0x86, 0x8b, 0x8a, 0x8e, 0x8f, 0x9b, 0x6b, 0x82, 0x8a, 0x9f, 0x7a,
        0x96, 0x80, 0x91, 0x94, 0xa6, 0x8e, 0x7a, 0x97, 0x8a, 0x6c, 0xad, 0xa1,
        0x78, 0x95, 0x9d, 0x9d, 0x88, 0x94, 0x99, 0x86, 0x80, 0x9b, 0x7c, 0x9c,
        0x87, 0x7a, 0xa0, 0xa8, 0x83, 0x74, 0x8e, 0x9b, 0x65, 0x95, 0x83, 0xc2,
        0x69, 0x88, 0x87, 0xa7, 0x86, 0x98, 0x9f, 0xc6, 0x5c, 0x7f, 0xb9, 0x9c,
        0x8b, 0x6e, 0x95, 0xbd, 0x72, 0x83, 0xbf, 0xb1, 0x89, 0x6d, 0x89, 0x8e,
        0x9d, 0x87, 0x95, 0x92, 0x76, 0x8d, 0x7f, 0x7f, 0x6d, 0x9d, 0x7b, 0x95,
        0x86, 0x69, 0x90, 0xa0, 0x62, 0x7c, 0x56, 0xa0, 0x9c, 0x8b, 0x81, 0x79,
        0xa6, 0x73, 0x69, 0xaa, 0x7b, 0x87, 0x8b, 0x7e, 0xa1, 0x9f, 0x6d, 0xa6,
        0x7e, 0x7e, 0x87, 0x7c, 0xa5, 0x84, 0x7b, 0xa2, 0xae, 0x92, 0x8e, 0x67,
        0x93, 0x88, 0x8b, 0xa2, 0x8d, 0x96, 0x92, 0x8e, 0x71, 0x7a, 0x82, 0x80,
        0x9e, 0x8b, 0x7b, 0x87, 0x96, 0xa0, 0xa4, 0x92, 0x88, 0x7e, 0x77, 0x8e,
        0x91, 0x7e, 0x81, 0x77, 0x79, 0x93, 0x8d, 0x9d, 0x8a, 0x71, 0x8d, 0x88,
        0x9d, 0x89, 0x85, 0x94, 0x99, 0x80, 0x89, 0x8f, 0x87, 0x81, 0x83, 0x74,
        0x8a, 0x89, 0x68, 0x7e, 0x99, 0x82, 0x8c, 0x76, 0xc6, 0x8f, 0x90, 0x7d,
        0x6c, 0x68, 0xbd, 0x90, 0x78, 0x9d, 0x7b, 0xa3, 0x99, 0x76, 0xaf, 0x8d,
        0x7d, 0x84, 0x7f, 0x9f, 0x8b, 0x7a, 0xaa, 0xa8, 0x79, 0x89, 0x8f, 0x8f,
        0x71, 0x80, 0x7f, 0xaa, 0x85, 0x70, 0xa8, 0x96, 0x6c, 0x8c, 0xaf, 0xeb,
        0x57, 0x7e, 0xcf, 0x8d, 0x93, 0x72, 0xa6, 0xd2, 0x52, 0xab, 0xbb, 0xa8,
        0x8d, 0x82, 0x7a, 0xbc, 0x72, 0x95, 0xa3, 0xa7, 0x8b, 0x74, 0x84, 0x85,
        0x6a, 0x85, 0x92, 0x9f, 0x91, 0x6b, 0x9b, 0x73, 0x77, 0xa2, 0x7f, 0x81,
        0x8e, 0x8b, 0x71, 0x8c, 0x7f, 0x60, 0x86, 0x81, 0x9c, 0x86, 0x93, 0x65,
        0x84, 0x84, 0x89, 0xa2, 0x98, 0x67, 0x88, 0x71, 0x92, 0x80, 0x65, 0xa2,
        0xa5, 0x99, 0x85, 0x95, 0x8f, 0x85, 0x8f, 0x82, 0x7e, 0x9a, 0x8a, 0x74,
        0x9d, 0x75, 0x88, 0x7e, 0xa2, 0x77, 0x82, 0x9e, 0x78, 0xa1, 0x74, 0x79,
        0x7f, 0x87, 0x91, 0x8d, 0x7a, 0x73, 0x96, 0xa2, 0xa3, 0x81, 0x7d, 0x8a,
        0x85, 0x75, 0x84, 0x81, 0x8b, 0x7f, 0x6c, 0x86, 0x8d, 0x7b, 0x79, 0x78,
        0x89, 0x85, 0x8c, 0x9a, 0xa6, 0x96, 0x7a, 0x78, 0xa2, 0x85, 0x9b, 0x89,
        0xc8, 0x97, 0xa3, 0x82, 0x8b, 0x7f, 0xe7, 0x8f, 0x8f, 0x74, 0x75, 0x83,
        0x87, 0x79, 0xb3, 0xab, 0x70, 0x9a, 0x9a, 0xa6, 0x81, 0x7e, 0xb8, 0x91,
        0x8b, 0x8d, 0x93, 0xa1, 0x79, 0x7d, 0x81, 0xb4, 0x79, 0x94, 0xa5, 0x89,
        0x8e, 0x7c, 0x9b, 0xe2, 0x50, 0x94, 0xdf, 0xa0, 0x53, 0x5d, 0x90, 0xde,
        0x67, 0x90, 0xaf, 0x8a, 0x8f, 0x73, 0x7b, 0xcb, 0x64, 0x9f, 0x91, 0x86,
        0x95, 0x84, 0x83, 0x88, 0x76, 0x8b, 0x8a, 0x8f, 0x9c, 0x9a, 0x92, 0x96,
        0x7f, 0x8e, 0x79, 0x80, 0x91, 0x6d, 0x86, 0x59, 0x74, 0x8a, 0x53, 0x88,
        0xae, 0x7b, 0x80, 0x70, 0x87, 0x74, 0x75, 0x91, 0xa4, 0x74, 0x8d, 0x5a,
        0x83, 0x95, 0x65, 0xa1, 0xb3, 0x74, 0x87, 0x7d, 0xaa, 0x82, 0x79, 0x78,
        0x9b, 0x7c, 0x78, 0x74, 0x9e, 0x74, 0x92, 0x92, 0xa3, 0x6e, 0x75, 0x92,
        0x6a, 0x6f, 0xa3, 0x7c, 0x9e, 0x7f, 0x92, 0x6b, 0x96, 0x79, 0x9a, 0x87,
        0x83, 0x8c, 0x72, 0x79, 0x6a, 0xa3, 0x79, 0x7d, 0x6d, 0x6c, 0x81, 0x96,
        0x98, 0x7f, 0x94, 0x81, 0x8a, 0x8a, 0xa7, 0x8c, 0x9a, 0x84, 0xa7, 0x89,
        0x9d, 0x85, 0xa6, 0xa8, 0xd0, 0x92, 0x97, 0x9f, 0x76, 0x86, 0xe6, 0x6f,
        0x7c, 0x84, 0x98, 0x8d, 0x80, 0x75, 0xc5, 0x86, 0x6b, 0x8d, 0x9e, 0x9e,
        0x7f, 0x71, 0x97, 0xa1, 0x75, 0x92, 0xa9, 0x9e, 0x91, 0x5e, 0xa2, 0xa2,
        0x68, 0xad, 0xa5, 0xa0, 0x7e, 0x68, 0xac, 0xdc, 0x50, 0xa2, 0xc1, 0x8a,
        0x63, 0x74, 0x7e, 0xd9, 0x3f, 0xbb, 0xba, 0x9d, 0x7f, 0x76, 0x5f, 0xb0,
        0x74, 0x8e, 0xb1, 0x95, 0x9a, 0x81, 0x63, 0x9f, 0x98, 0x74, 0x80, 0x89,
        0x95, 0x8e, 0x9e, 0x78, 0x87, 0x82, 0x57, 0x87, 0x8d, 0x90, 0x79, 0x80,
        0x76, 0x7c, 0x7d, 0x8a, 0xa6, 0x82, 0x98, 0x7a, 0x96, 0x97, 0x84, 0x87,
        0xab, 0x7f, 0x87, 0x57, 0x83, 0x6a, 0x6a, 0x84, 0x9c, 0x8d, 0x74, 0x68,
        0xa2, 0x92, 0x90, 0x98, 0x98, 0x8b, 0x6d, 0x72, 0x90, 0x8c, 0x7c, 0x7d,
        0x9b, 0x6e, 0x71, 0x76, 0x6b, 0x7b, 0x63, 0x81, 0xad, 0x71, 0x78, 0x8e,
        0x74, 0x87, 0x8e, 0x8a, 0xab, 0x8e, 0x83, 0x85, 0x7d, 0xa0, 0x67, 0x7f,
        0x9c, 0x74, 0x6b, 0x88, 0x66, 0x92, 0x7f, 0x83, 0x94, 0x92, 0xa5, 0x82,
        0xa1, 0x7b, 0x6f, 0x70, 0xab, 0x72, 0xb5, 0x91, 0xb7, 0x89, 0x91, 0x77,
        0x77, 0x8a, 0xdb, 0x88, 0x8a, 0x8d, 0x89, 0x6c, 0x7b, 0x83, 0xc8, 0xb5,
        0x4b, 0x96, 0x8b, 0x92, 0x91, 0x76, 0xa9, 0xae, 0x70, 0xa8, 0x74, 0x9d,
        0x96, 0x6d, 0xa1, 0xba, 0x86, 0xbc, 0xbc, 0xa2, 0x8d, 0x6c, 0x96, 0xd8,
        0x71, 0xb1, 0xae, 0xb0, 0x79, 0x7b, 0x71, 0xd8, 0x32, 0xaa, 0xae, 0xa7,
        0x7c, 0x6b, 0x77, 0xc0, 0x7c, 0x9e, 0x9f, 0x89, 0x92, 0x8a, 0x76, 0xae,
        0x97, 0x75, 0x87, 0x8c, 0x7f, 0x86, 0x8b, 0x73, 0x6b, 0x64, 0x87, 0x6d,
        0x99, 0x8f, 0x8d, 0x66, 0x76, 0x87, 0x6d, 0x6e, 0x98, 0x7a, 0x91, 0x92,
        0x8c, 0x7c, 0x89, 0x9b, 0x9e, 0x83, 0x86, 0x62, 0x90, 0x6e, 0x62, 0x82,
        0xa3, 0x7e, 0x86, 0x6a, 0x93, 0x9b, 0x73, 0x6c, 0xa8, 0x99, 0x73, 0x99,
        0x8c, 0x89, 0x85, 0x67, 0x98, 0x78, 0x63, 0x98, 0x77, 0xa6, 0x6e, 0x81,
        0xa4, 0x64, 0x8f, 0x8a, 0x7f, 0x9b, 0x91, 0x91, 0x94, 0x82, 0x8b, 0x8b,
        0x76, 0x66, 0x83, 0x81, 0x94, 0x71, 0x82, 0x9e, 0x93, 0x85, 0x80, 0x8c,
        0xae, 0x94, 0x96, 0x74, 0x91, 0x9a, 0x6f, 0x9e, 0xa9, 0x76, 0xab, 0x8e,
        0xd6, 0x9c, 0x7d, 0x98, 0x83, 0x6e, 0xfe, 0x83, 0x71, 0x82, 0x9f, 0x93,
        0x7b, 0x67, 0xcb, 0xb9, 0x66, 0x89, 0x99, 0x8a, 0xac, 0x8c, 0xa0, 0x9c,
        0x70, 0xaf, 0x81, 0x88, 0x9c, 0x7e, 0xa8, 0xa5, 0x65, 0x8c, 0xa1, 0x8c,
        0x83, 0x85, 0x9d, 0xcb, 0x4b, 0xc1, 0xb5, 0xa2, 0x75, 0x63, 0x75, 0xbd,
        0x34, 0xae, 0xca, 0xa2, 0x89, 0x7a, 0x69, 0xb0, 0x70, 0xae, 0x94, 0x76,
        0x85, 0x93, 0x6a, 0x90, 0x6a, 0x8a, 0xac, 0x71, 0x7e, 0x81, 0xa2, 0x71,
        0x98, 0x86, 0x99, 0x76, 0x8f, 0x6f, 0x90, 0x93, 0x7c, 0x72, 0x81, 0x8c,
        0x78, 0x77, 0x97, 0x84, 0x98, 0x70, 0x96, 0x9a, 0x9b, 0x93, 0x92, 0x5f,
        0xaa, 0x88, 0x5b, 0x74, 0xaa, 0x96, 0x6a, 0x73, 0x87, 0x83, 0x72, 0x89,
        0xab, 0x8a, 0x5f, 0x71, 0xa4, 0x94, 0x92, 0x60, 0x96, 0x7b, 0x53, 0x88,
        0x69, 0x8b, 0x5e, 0x7b, 0xa0, 0x83, 0x70, 0x95, 0x6d, 0x9b, 0x6d, 0x98,
        0x99, 0x86, 0x6e, 0x7a, 0x87, 0x86, 0x68, 0x8a, 0x7e, 0x87, 0x90, 0x7d,
        0x76, 0x93, 0x80, 0x8a, 0x8f, 0x97, 0xac, 0x71, 0xa2, 0x96, 0x7f, 0x8e,
        0xc2, 0x71, 0xab, 0xa9, 0xd1, 0x85, 0x8c, 0x74, 0x70, 0x72, 0xff, 0x77,
        0x6d, 0x77, 0x91, 0x5d, 0x71, 0x5d, 0xb2, 0xb1, 0x38, 0x76, 0xa6, 0x80,
        0x91, 0x86, 0xa3, 0x9c, 0x85, 0x95, 0x99, 0xab, 0x8a, 0x6e, 0x9f, 0xa6,
        0x75, 0xa9, 0xb3, 0x97, 0x69, 0x85, 0xa4, 0xc9, 0x59, 0xb4, 0xca, 0x8d,
        0x5c, 0x67, 0x7d, 0xcd, 0x29, 0xca, 0xdb, 0x8c, 0x86, 0x8c, 0x70, 0xaa,
        0x5c, 0x9e, 0x98, 0x86, 0x92, 0x7e, 0x6b, 0x8e, 0x8f, 0x6a, 0x84, 0x71,
        0x9a, 0x76, 0x87, 0x84, 0x8b, 0x7f, 0x7f, 0x6e, 0xa3, 0x83, 0x85, 0x78,
        0x6f, 0x7c, 0x6f, 0x96, 0x95, 0x8c, 0xa3, 0x72, 0x92, 0x66, 0x7b, 0x99,
        0x9c, 0x9c, 0x9a, 0x63, 0xaa, 0x81, 0x7f, 0x90, 0x8c, 0xa0, 0x7e, 0x67,
        0x94, 0x96, 0x7f, 0x8a, 0x95, 0x91, 0x5c, 0x73, 0x88, 0x9b, 0x85, 0x70,
        0x87, 0x79, 0x56, 0x92, 0x69, 0x95, 0x62, 0x78, 0x93, 0x83, 0x63, 0x98,
        0x7a, 0xa4, 0x95, 0x7c, 0x8e, 0x69, 0x86, 0x92, 0x7d, 0x6b, 0x69, 0x85,
        0xa8, 0x90, 0x7c, 0x7b, 0x9e, 0x87, 0x7b, 0x90, 0x98, 0x7a, 0xa4, 0x92,
        0xad, 0x97, 0xa0, 0x6d, 0xa6, 0x74, 0xb7, 0x7f, 0xb9, 0x94, 0x6c, 0x77,
        0x65, 0x6f, 0xfc, 0x7d, 0x68, 0x74, 0xa1, 0x6c, 0x71, 0x61, 0xc3, 0xb5,
        0x60, 0x86, 0x8b, 0x7d, 0x89, 0x8b, 0x93, 0xa4, 0x68, 0xa0, 0x8f, 0x73,
        0x96, 0x6e, 0x81, 0x99, 0x81, 0x9d, 0xae, 0x93, 0x6a, 0x8b, 0x9a, 0xcb,
        0x68, 0xaf, 0xca, 0x81, 0x73, 0x6e, 0x70, 0xd7, 0x49, 0xb9, 0xc5, 0x9d,
        0x87, 0x8d, 0x61, 0xa8, 0x5e, 0xa4, 0xb7, 0xab, 0x96, 0x84, 0x76, 0x98,
        0x84, 0x99, 0x8f, 0x70, 0x79, 0x94, 0xa5, 0x87, 0x6e, 0x73, 0x63, 0x7e,
        0x83, 0x8c, 0x88, 0x71, 0x7a, 0x81, 0x7d, 0x94, 0x92, 0x89, 0xab, 0x7a,
        0x96, 0x66, 0x7b, 0x8b, 0x8f, 0x8e, 0x94, 0x5b, 0xa0, 0x7f, 0x82, 0x84,
        0x84, 0x80, 0x7d, 0x81, 0x89, 0x7b, 0x97, 0x78, 0x83, 0x93, 0x4c, 0x95,
        0x7f, 0x93, 0x8e, 0x70, 0x89, 0x81, 0x69, 0x87, 0x76, 0x73, 0x9a, 0x74,
        0xa2, 0x88, 0x5e, 0xac, 0x74, 0x8e, 0x74, 0x8e, 0x94, 0x85, 0x7b, 0x7a,
        0x72, 0x82, 0x68, 0x77, 0x96, 0x8a, 0x7b, 0x6c, 0x88, 0x8b, 0x6b, 0x86,
        0xa4, 0x88, 0xac, 0xa1, 0x90, 0x8e, 0x85, 0x6d, 0xb1, 0x69, 0xb1, 0xa2,
        0xbe, 0x9a, 0x7c, 0xb4, 0x63, 0x56, 0xf2, 0x90, 0x5e, 0x71, 0xa3, 0x6a,
        0x8b, 0x67, 0xbe, 0xa8, 0x6e, 0x8b, 0x90, 0x83, 0xa0, 0x78, 0x9f, 0xa5,
        0x65, 0xa3, 0x8b, 0x94, 0x84, 0x6c, 0xa5, 0x97, 0x7d, 0xa7, 0x9f, 0x9c,
        0x62, 0x7d, 0xb5, 0xb1, 0x58, 0x98, 0xba, 0x8d, 0x7f, 0x57, 0x86, 0xc5,
        0x39, 0xb3, 0xc9, 0xa9, 0x89, 0x8e, 0x55, 0xaf, 0x54, 0xb4, 0xb0, 0x8f,
        0x8b, 0x7c, 0x6e, 0x8e, 0x96, 0x90, 0x8a, 0x83, 0x84, 0x8c, 0x96, 0x7f,
        0x89, 0x67, 0x99, 0x60, 0x74, 0x8d, 0x9b, 0x82, 0x6f, 0x61, 0x84, 0x9a,
        0x7c, 0x85, 0x86, 0x7c, 0x9b, 0x5f, 0x81, 0x96, 0x90, 0x9b, 0xa0, 0x58,
        0xaf, 0x78, 0x81, 0x8f, 0x96, 0x81, 0x77, 0x7d, 0xa2, 0x85, 0x74, 0x84,
        0x99, 0x8d, 0x5f, 0x77, 0x8a, 0x8c, 0x85, 0x78, 0x8f, 0x80, 0x5c, 0x6f,
        0x77, 0x73, 0x80, 0x99, 0x83, 0x89, 0x6f, 0x8e, 0x85, 0x7e, 0x6c, 0x81,
        0x99, 0x89, 0x69, 0x70, 0x8c, 0x8f, 0x6b, 0x89, 0x80, 0x7a, 0x83, 0x7a,
        0x96, 0x99, 0x73, 0x76, 0x9c, 0x67, 0xab, 0xab, 0xbd, 0x8b, 0x85, 0x90,
        0xb0, 0x6b, 0xbd, 0x9c, 0xb9, 0xa0, 0x7c, 0x7d, 0x66, 0x78, 0xdb, 0x97,
        0x55, 0x67, 0x96, 0x69, 0x80, 0x49, 0xc1, 0xbb, 0x6c, 0x91, 0x8a, 0x92,
        0x9a, 0x98, 0xa5, 0x98, 0x51, 0xa6, 0x99, 0x8e, 0x73, 0x73, 0x9d, 0x9f,
        0x77, 0xa6, 0xa4, 0x92, 0x64, 0x75, 0xac, 0xb2, 0x5d, 0xa1, 0xab, 0xa4,
        0x5a, 0x5b, 0xb3, 0xb7, 0x2d, 0xca, 0xc8, 0x76, 0x94, 0x8e, 0x59, 0xb0,
        0x52, 0x9d, 0xbd, 0x89, 0x97, 0x84, 0x5d, 0x9a, 0x87, 0x9b, 0x94, 0x6c,
        0x7b, 0xaa, 0x8a, 0x8b, 0x79, 0x5d, 0x90, 0x5c, 0x8b, 0x7b, 0xbe, 0x68,
        0x84, 0x6f, 0x75, 0x72, 0x98, 0x82, 0x92, 0x7a, 0xa2, 0x6e, 0x7b, 0x7d,
        0x9c, 0x99, 0x97, 0x5d, 0x9b, 0x69, 0x80, 0xa3, 0x96, 0x8d, 0x7c, 0x82,
        0xa3, 0x76, 0x95, 0x67, 0x93, 0x8e, 0x62, 0x7b, 0x78, 0x96, 0x69, 0x67,
        0x84, 0x8f, 0x62, 0x80, 0x88, 0x7e, 0x6c, 0x94, 0xab, 0x8b, 0x82, 0x9e,
        0x7e, 0x8c, 0x70, 0x83, 0x9c, 0x9c, 0x80, 0x87, 0x8f, 0xa1, 0x7f, 0x81,
        0x95, 0x83, 0x6d, 0x7a, 0xa0, 0x77, 0x6d, 0x76, 0x91, 0x7e, 0xa3, 0x62,
        0xa0, 0x93, 0x7e, 0x97, 0xb6, 0x6c, 0xad, 0x72, 0xb2, 0x95, 0x73, 0x83,
        0x62, 0x56, 0xe2, 0x99, 0x6e, 0x66, 0xb0, 0x6c, 0x75, 0x4e, 0xb2, 0xc7,
        0x51, 0x98, 0x90, 0x8c, 0x82, 0x63, 0xa8, 0x99, 0x54, 0xc1, 0x87, 0x80,
        0x79, 0x62, 0xad, 0x81, 0x76, 0x99, 0xa9, 0x9b, 0x4e, 0x8c, 0xaf, 0xb6,
        0x5d, 0x9b, 0xb4, 0x9f, 0x6d, 0x60, 0xa5, 0xb5, 0x3e, 0xb2, 0xc4, 0x96,
        0x86, 0x6d, 0x48, 0x99, 0x50, 0xc1, 0xa8, 0x93, 0x8a, 0x92, 0x7d, 0x8f,
        0x74, 0x87, 0x91, 0x71, 0x8c, 0x87, 0x90, 0x80, 0x80, 0x82, 0x7b, 0x85,
        0x81, 0x7f, 0xa7, 0x6a, 0x78, 0x4e, 0x90, 0x85, 0x9f, 0x93, 0x91, 0x91,
        0xa5, 0x6e, 0x9d, 0xa7, 0x9e, 0x7f, 0x9a, 0x66, 0xbe, 0x6f, 0x82, 0x81,
        0x85, 0x86, 0x89, 0x6c, 0x88, 0x92, 0x6d, 0x6a, 0x8c, 0x95, 0x68, 0x70,
        0x91, 0x9b, 0x76, 0x59, 0x87, 0x93, 0x6f, 0x79, 0x7a, 0x99, 0x7d, 0x76,
        0xa3, 0x9c, 0x69, 0x75, 0x8f, 0x8e, 0x7e, 0x7a, 0x80, 0x8b, 0x76, 0x82,
        0x70, 0x71, 0x77, 0x7a, 0x88, 0xa1, 0x79, 0x75, 0x9e, 0x7e, 0x6d, 0x6f,
        0xa5, 0x84, 0xb1, 0x77, 0xad, 0x94, 0x98, 0x90, 0xa7, 0x5c, 0xb6, 0x84,
        0x99, 0x91, 0x71, 0x7b, 0x6d, 0x54, 0xd2, 0x84, 0x5d, 0x75, 0xb4, 0x7e,
        0x7d, 0x53, 0xc5, 0x98, 0x70, 0xaa, 0x9e, 0x81, 0x7d, 0x68, 0xa7, 0x8d,
        0x63, 0xab, 0x9b, 0x96, 0x7e, 0x6b, 0xa3, 0x9e, 0x6d, 0x98, 0xaf, 0x9b,
        0x78, 0x74, 0xae, 0xc7, 0x70, 0x98, 0xd4, 0x9a, 0x6e, 0x75, 0xa2, 0xcd,
        0x42, 0xb0, 0xc9, 0x89, 0x88, 0x77, 0x6a, 0xa4, 0x66, 0xb5, 0xbc, 0x8a,
        0x96, 0x87, 0x5e, 0xa5, 0x87, 0x95, 0x91, 0x5d, 0x85, 0x91, 0xaa, 0x8f,
        0x99, 0x78, 0x79, 0x74, 0x7f, 0x81, 0xa1, 0x74, 0x77, 0x64, 0x6c, 0x94,
        0xa0, 0x8b, 0x9b, 0x8e, 0xac, 0x6a, 0x98, 0x9c, 0x7a, 0x9f, 0xab, 0x7e,
        0xa3, 0x8b, 0x68, 0x7f, 0x84, 0x9f, 0x93, 0x77, 0x90, 0x98, 0x8f, 0x87,
        0x81, 0x8e, 0x76, 0x95, 0x66, 0x78, 0x85, 0x79, 0x95, 0x89, 0x64, 0x8e,
        0x8a, 0x87, 0x6f, 0x65, 0xa4, 0x98, 0x7a, 0x83, 0x85, 0x7e, 0x6b, 0xaa,
        0x81, 0x94, 0x7c, 0x6e, 0x78, 0x85, 0x87, 0x6d, 0x7a, 0x92, 0x67, 0x7a,
        0x8d, 0x95, 0x77, 0x7f, 0x9f, 0x71, 0xb1, 0xa1, 0xb2, 0x91, 0x7f, 0xb0,
        0xac, 0x5c, 0xaf, 0x6a, 0xae, 0x98, 0x63, 0x7e, 0x67, 0x6f, 0xc4, 0x8a,
        0x75, 0x61, 0xac, 0x73, 0x86, 0x54, 0xc3, 0xa8, 0x5d, 0xa9, 0xb4, 0x9b,
        0x80, 0x6d, 0xa1, 0x8d, 0x64, 0xaa, 0x86, 0x96, 0x86, 0x6c, 0x9b, 0x8b,
        0x73, 0x9f, 0x9a, 0x87, 0x64, 0x6c, 0xad, 0xa6, 0x64, 0x8a, 0xbe, 0x88,
        0x67, 0x67, 0xaf, 0xb0, 0x71, 0xae, 0xde, 0x95, 0x9f, 0x7c, 0x7d, 0xa1,
        0x79, 0xb8, 0xaa, 0x9c, 0x84, 0x91, 0x6b, 0xac, 0x74, 0xa1, 0xad, 0x74,
        0x88, 0x93, 0x94, 0x72, 0x97, 0x7a, 0x78, 0x86, 0x76, 0x93, 0xb1, 0x6f,
        0x91, 0x44, 0x96, 0x8e, 0x8e, 0xa5, 0x9a, 0x70, 0x99, 0x79, 0x84, 0x82,
        0x7f, 0x78, 0xac, 0x6f, 0x9c, 0x80, 0x7d, 0x87, 0x7f, 0x9d, 0x6a, 0x71,
        0x7c, 0x92, 0x78, 0x7a, 0x93, 0x90, 0x55, 0x83, 0x7a, 0x8a, 0x9a, 0x65,
        0x86, 0x9b, 0x7c, 0x6b, 0xa3, 0x85, 0x86, 0x71, 0xab, 0x9a, 0x86, 0x90,
        0x86, 0x88, 0x88, 0x88, 0x99, 0x98, 0x77, 0x86, 0x88, 0x90, 0x79, 0x7c,
        0x6e, 0x9f, 0x76, 0x70, 0x84, 0x67, 0x7e, 0x8b, 0xa5, 0x68, 0xa7, 0x9d,
        0xb5, 0x9b, 0x8b, 0x8a, 0xc0, 0x60, 0x9e, 0x83, 0xb0, 0xb7, 0x65, 0x7f,
        0x7a, 0x7e, 0xc3, 0x7b, 0x74, 0x8f, 0xa4, 0x68, 0x5f, 0x47, 0xbb, 0xa4,
        0x74, 0x95, 0xab, 0x80, 0x70, 0x5c, 0x9a, 0x8a, 0x7d, 0xa5, 0x90, 0x7d,
        0x86, 0x68, 0xb1, 0x73, 0x6d, 0xad, 0x93, 0x8d, 0x7b, 0x64, 0xbd, 0xae,
        0x7a, 0x98, 0xcb, 0x97, 0x83, 0x67, 0xab, 0xb0, 0x61, 0xa7, 0xcd, 0x7e,
        0x87, 0x78, 0x76, 0x95, 0x6a, 0xba, 0xa9, 0x84, 0x8f, 0x95, 0x7c, 0x8b,
        0x90, 0x89, 0x8b, 0x81, 0x87, 0x8b, 0x76, 0x73, 0x6f, 0x61, 0x94, 0x73,
