#ifndef SINE_MODEL_H
#define SINE_MODEL_H


unsigned int sine_model_len = 2960;
unsigned char sine_model[] = {
 0x20, 0x00, 0x00, 0x00, 0x54, 0x46, 0x4c, 0x33, 0x00, 0x00, 0x00, 0x00,
  0x00, 0x00, 0x12, 0x00, 0x1c, 0x00, 0x04, 0x00, 0x08, 0x00, 0x0c, 0x00,
  0x10, 0x00, 0x14, 0x00, 0x00, 0x00, 0x18, 0x00, 0x12, 0x00, 0x00, 0x00,
  0x03, 0x00, 0x00, 0x00, 0x44, 0x0b, 0x00, 0x00, 0x70, 0x06, 0x00, 0x00,
  0x58, 0x06, 0x00, 0x00, 0x3c, 0x00, 0x00, 0x00, 0x04, 0x00, 0x00, 0x00,
  0x01, 0x00, 0x00, 0x00, 0x0c, 0x00, 0x00, 0x00, 0x08, 0x00, 0x0c, 0x00,
  0x04, 0x00, 0x08, 0x00, 0x08, 0x00, 0x00, 0x00, 0x08, 0x00, 0x00, 0x00,
  0x0b, 0x00, 0x00, 0x00, 0x13, 0x00, 0x00, 0x00, 0x6d, 0x69, 0x6e, 0x5f,
  0x72, 0x75, 0x6e, 0x74, 0x69, 0x6d, 0x65, 0x5f, 0x76, 0x65, 0x72, 0x73,
  0x69, 0x6f, 0x6e, 0x00, 0x0c, 0x00, 0x00, 0x00, 0x08, 0x06, 0x00, 0x00,
  0xf4, 0x05, 0x00, 0x00, 0x98, 0x05, 0x00, 0x00, 0x34, 0x05, 0x00, 0x00,
  0x20, 0x05, 0x00, 0x00, 0xcc, 0x04, 0x00, 0x00, 0xb8, 0x00, 0x00, 0x00,
  0x64, 0x00, 0x00, 0x00, 0x58, 0x00, 0x00, 0x00, 0x44, 0x00, 0x00, 0x00,
  0x30, 0x00, 0x00, 0x00, 0x04, 0x00, 0x00, 0x00, 0x96, 0xfa, 0xff, 0xff,
  0x04, 0x00, 0x00, 0x00, 0x10, 0x00, 0x00, 0x00, 0x31, 0x2e, 0x35, 0x2e,
  0x30, 0x00, 0x00, 0x00, 0x00, 0x00, 0x00, 0x00, 0x00, 0x00, 0x00, 0x00,
  0x00, 0x00, 0x00, 0x00, 0x00, 0x00, 0x00, 0x00, 0x00, 0x00, 0x00, 0x00,
  0x84, 0xf5, 0xff, 0xff, 0x00, 0x00, 0x00, 0x00, 0x00, 0x00, 0x00, 0x00,
  0x00, 0x00, 0x00, 0x00, 0x94, 0xf5, 0xff, 0xff, 0x00, 0x00, 0x00, 0x00,
  0x00, 0x00, 0x00, 0x00, 0x00, 0x00, 0x00, 0x00, 0xa4, 0xf5, 0xff, 0xff,
  0x00, 0x00, 0x00, 0x00, 0xe6, 0xfa, 0xff, 0xff, 0x04, 0x00, 0x00, 0x00,
  0x40, 0x00, 0x00, 0x00, 0x51, 0xc8, 0xe3, 0xbe, 0x9d, 0x35, 0x90, 0xbf,
  0x38, 0x35, 0xe3, 0xbe, 0x08, 0xb1, 0x20, 0xbe, 0x50, 0x32, 0xad, 0xbd,
  0xd7, 0x3d, 0xaa, 0x3f, 0xf9, 0x59, 0x3f, 0x3f, 0x5f, 0xcf, 0x2f, 0xbe,
  0x72, 0x7b, 0xa8, 0x3e, 0xa0, 0x53, 0x0c, 0xbf, 0x83, 0xbc, 0xc5, 0xbe,
  0x70, 0x71, 0xd5, 0x3d, 0x78, 0xf6, 0x9b, 0xbd, 0xac, 0xad, 0xcb, 0xbd,
  0xdf, 0xbb, 0xcf, 0x3f, 0x22, 0xe5, 0x9e, 0x3f, 0x00, 0x00, 0x00, 0x00,
  0x36, 0xfb, 0xff, 0xff, 0x04, 0x00, 0x00, 0x00, 0x00, 0x04, 0x00, 0x00,
  0xf6, 0x81, 0xae, 0xbe, 0x7c, 0x55, 0x83, 0xbe, 0x7e, 0x7a, 0x8d, 0xbe,
  0x26, 0x2f, 0x01, 0x3e, 0xb5, 0xd5, 0xd7, 0xbe, 0x48, 0x75, 0x6f, 0xbd,
  0x86, 0xe8, 0x4a, 0x3e, 0x64, 0x0e, 0x92, 0xbe, 0x66, 0x8c, 0xb2, 0xbe,
  0x70, 0x7a, 0x79, 0xbd, 0xda, 0xce, 0x12, 0x3e, 0x06, 0x6e, 0x28, 0x3e,
  0xc0, 0xbc, 0x08, 0x3d, 0xce, 0x37, 0x4a, 0x3e, 0x96, 0x52, 0x4e, 0x3e,
  0xd1, 0x1c, 0xd3, 0x3e, 0xe4, 0x18, 0x01, 0xbf, 0xd5, 0x7e, 0x95, 0xbc,
  0x80, 0x1f, 0x55, 0x3d, 0x0c, 0xb1, 0x74, 0xbe, 0xc2, 0x04, 0x75, 0xbd,
  0x4c, 0x3e, 0xb0, 0xbd, 0xbe, 0x91, 0x29, 0xbe, 0x46, 0x9b, 0x32, 0x3f,
  0xf6, 0x32, 0x67, 0x3e, 0xdb, 0x6f, 0x2b, 0xbf, 0x7f, 0xab, 0xaa, 0xbe,
  0x60, 0x13, 0x6f, 0xbc, 0x40, 0x55, 0xa0, 0x3c, 0x00, 0x5b, 0xb3, 0x3b,
  0xfe, 0x92, 0x4c, 0xbe, 0xd4, 0xfa, 0xe7, 0xbe, 0x53, 0x5e, 0x9a, 0x3e,
  0xe7, 0x20, 0xa6, 0x3b, 0xcd, 0x34, 0xbf, 0x3e, 0x1d, 0x45, 0xaf, 0x3d,
  0xaa, 0x8c, 0x6e, 0xbe, 0x7c, 0x42, 0xa5, 0xbd, 0x70, 0x68, 0x89, 0xbc,
  0x3e, 0xb1, 0xf3, 0xbd, 0x44, 0xef, 0xd7, 0xbd, 0xb2, 0xbc, 0xce, 0xbd,
  0x80, 0x12, 0x1b, 0xbb, 0x3c, 0x74, 0x20, 0xbe, 0x51, 0xea, 0x97, 0x3e,
  0xd5, 0x53, 0x88, 0x3e, 0x25, 0x9c, 0x99, 0x3d, 0x64, 0x7b, 0x58, 0x3e,
  0x4b, 0x59, 0x81, 0x3e, 0x8b, 0x58, 0x9a, 0xbe, 0xe7, 0x37, 0xcd, 0xbe,
  0x40, 0x16, 0x82, 0xbd, 0xd9, 0x76, 0xa6, 0x3e, 0xce, 0x2d, 0x01, 0xbe,
  0xa3, 0x0c, 0x98, 0x3e, 0xde, 0xf7, 0xc1, 0xbe, 0x16, 0xf3, 0x4d, 0x3e,
  0x8c, 0x1e, 0xc9, 0xbe, 0xa9, 0xf2, 0x9b, 0x3e, 0xbc, 0x71, 0xae, 0x3d,
  0x68, 0xbf, 0xb3, 0xbe, 0x06, 0x3f, 0x07, 0x3e, 0x14, 0x72, 0xb9, 0xbe,
  0x14, 0x13, 0x30, 0xbe, 0x84, 0x5e, 0xfc, 0x3d, 0x61, 0xdb, 0x43, 0xbe,
  0x55, 0xf7, 0xad, 0x3e, 0xf7, 0x5f, 0x61, 0xbe, 0x00, 0x9f, 0x92, 0xbe,
  0xec, 0x78, 0xe1, 0xbd, 0x9e, 0x30, 0x9b, 0xbe, 0x17, 0x7f, 0x57, 0xbe,
  0x75, 0xf6, 0xc8, 0x3e, 0xb2, 0xb4, 0x4b, 0x3e, 0x18, 0xe6, 0x8b, 0xbd,
  0x9a, 0x40, 0x40, 0x3e, 0x5f, 0x14, 0xa2, 0xbe, 0xa9, 0x26, 0x8c, 0xbe,
  0xa8, 0xe8, 0x1d, 0xbd, 0x8b, 0xb3, 0x6d, 0xbe, 0x48, 0x79, 0x7c, 0xbe,
  0xe0, 0xde, 0xe1, 0x3d, 0xce, 0x5b, 0x3c, 0xbe, 0x83, 0xcb, 0xe9, 0x3e,
  0x03, 0x28, 0xa5, 0x3e, 0xcc, 0xc9, 0xbd, 0xbe, 0xa0, 0x6e, 0xd5, 0xbd,
  0x3a, 0xfa, 0x07, 0xbf, 0x11, 0xd4, 0xd9, 0x3e, 0xed, 0x96, 0xc3, 0xbd,
  0x6a, 0xa9, 0xba, 0xbe, 0xaf, 0x8a, 0xa5, 0x3e, 0xea, 0xc3, 0x74, 0x3e,
  0x07, 0xe3, 0xd3, 0x3e, 0xe1, 0x95, 0xd5, 0x3e, 0xfd, 0x51, 0xa8, 0xbe,
  0x91, 0xfc, 0xe6, 0x3e, 0xa1, 0x9d, 0x15, 0xbe, 0x9c, 0x5c, 0xca, 0x3d,
  0xe8, 0x04, 0xb5, 0xbe, 0x83, 0xcb, 0xaf, 0xbd, 0x8b, 0xd1, 0xbc, 0x3e,
  0x07, 0xd8, 0xbc, 0xbe, 0xcb, 0xfa, 0xe6, 0x3e, 0xff, 0x55, 0x79, 0xbe,
  0x3c, 0x41, 0x5f, 0xbe, 0x55, 0x76, 0xdc, 0x3e, 0x5b, 0xae, 0xb3, 0xbe,
  0x38, 0x2a, 0xc1, 0xbd, 0x45, 0x62, 0xda, 0x3e, 0x09, 0x7e, 0x87, 0xbf,
  0x36, 0x15, 0xe5, 0x3e, 0x1f, 0xd5, 0xb5, 0x3d, 0xc7, 0x01, 0x08, 0xbe,
  0xc0, 0x24, 0xcd, 0xbb, 0x3a, 0x02, 0x96, 0x3e, 0x41, 0x90, 0x50, 0x3c,
  0x78, 0xcd, 0x74, 0xbe, 0x83, 0x15, 0xdb, 0x3e, 0xd4, 0xb6, 0x22, 0x3d,
  0xea, 0x94, 0xc2, 0xbe, 0x17, 0x5e, 0x9f, 0x3d, 0xfc, 0x98, 0x89, 0xbe,
  0x47, 0xc6, 0x8b, 0x3e, 0x77, 0xdf, 0x85, 0x3e, 0x28, 0x5f, 0xbd, 0xbe,
  0x78, 0x9f, 0x9e, 0xbd, 0x08, 0x85, 0x1d, 0x3b, 0x0b, 0xf6, 0xba, 0x3d,
  0xb6, 0x68, 0x11, 0x3d, 0xf0, 0xd1, 0x00, 0x3d, 0xb1, 0xae, 0x12, 0xbd,
  0xde, 0xbb, 0x27, 0xbe, 0x37, 0xf7, 0xac, 0x3e, 0x52, 0xd4, 0xad, 0xbe,
  0xfe, 0xeb, 0x3d, 0x3d, 0x14, 0x64, 0x6e, 0xbe, 0x94, 0x24, 0x84, 0x3e,
  0x65, 0xa3, 0xd2, 0x3e, 0xb6, 0x06, 0x4d, 0x3e, 0x5d, 0x33, 0xbd, 0x3e,
  0xa0, 0x07, 0x92, 0xbe, 0x16, 0xb3, 0x8e, 0xbd, 0x3a, 0x6d, 0x89, 0xbe,
  0x29, 0x07, 0x8a, 0x3e, 0x70, 0xc3, 0x63, 0x3d, 0xe9, 0xe4, 0xaa, 0x3e,
  0xfb, 0x54, 0x87, 0x3e, 0x99, 0x4c, 0xd1, 0xbe, 0x4a, 0x0b, 0x9f, 0xbe,
  0xe0, 0x82, 0x09, 0xbe, 0xe8, 0xdf, 0xbb, 0xbd, 0xa5, 0x0d, 0x9a, 0x3e,
  0x60, 0xf3, 0x7c, 0xbc, 0xc9, 0xc2, 0xcf, 0x3e, 0xb8, 0x00, 0x91, 0xbe,
  0xf8, 0xfc, 0x95, 0xbd, 0x08, 0xdb, 0xda, 0xbd, 0x20, 0x04, 0xca, 0xbe,
  0xe0, 0x4a, 0x82, 0xbe, 0xe6, 0xaa, 0xa1, 0x3e, 0x1a, 0xb6, 0xcd, 0x3e,
  0xe2, 0x6e, 0x2c, 0xbe, 0x6b, 0x8b, 0x54, 0x3d, 0x0d, 0x64, 0xf8, 0x3d,
  0xbc, 0xe6, 0xaa, 0xbd, 0x52, 0xbd, 0x28, 0x3e, 0x32, 0x99, 0x63, 0xbe,
  0xd2, 0x59, 0x34, 0x3e, 0xab, 0xa4, 0x84, 0x3e, 0x00, 0xf6, 0xd7, 0x3c,
  0xbd, 0x77, 0xc4, 0x3e, 0x5f, 0x54, 0xa8, 0x3e, 0x5c, 0x58, 0x9d, 0x3d,
  0x46, 0x10, 0x7f, 0x3e, 0x7e, 0x6f, 0xbd, 0x3e, 0xaa, 0x87, 0x34, 0x3e,
  0xf5, 0x59, 0xc7, 0xbe, 0x5c, 0x3f, 0x36, 0xbe, 0x55, 0xb0, 0x99, 0xbe,
  0x92, 0x4f, 0x94, 0xbe, 0x47, 0x5b, 0xbc, 0x3e, 0xa0, 0x6a, 0xd1, 0xbe,
  0x4a, 0x83, 0x7a, 0xbe, 0x84, 0x0d, 0xe3, 0x3d, 0xda, 0x51, 0x01, 0x3e,
  0x30, 0x76, 0xc3, 0xbe, 0x87, 0x07, 0xaf, 0x3e, 0xef, 0xbf, 0xa9, 0x3e,
  0xd6, 0x70, 0x70, 0x3e, 0xe0, 0xcd, 0x09, 0x3d, 0x12, 0xde, 0x94, 0xbe,
  0x9c, 0x70, 0xd7, 0xbe, 0x60, 0x37, 0x88, 0x3c, 0xa7, 0x9e, 0xc1, 0xbe,
  0x26, 0xdc, 0x41, 0x3e, 0x9f, 0xb8, 0xd9, 0xbe, 0x18, 0xb7, 0xba, 0xbe,
  0xb4, 0x0b, 0xbc, 0x3d, 0xc5, 0x8e, 0x66, 0xbe, 0x5c, 0xd5, 0xfa, 0x3d,
  0x66, 0xf6, 0x7f, 0x3e, 0x09, 0x67, 0xb7, 0x3e, 0xe3, 0x9d, 0x9e, 0x3e,
  0xaa, 0xe4, 0x3c, 0x3e, 0x9a, 0xda, 0x9e, 0xbe, 0x5d, 0xa5, 0xa4, 0x3e,
  0x20, 0x96, 0xe7, 0xbc, 0x1c, 0x39, 0x85, 0xbe, 0xe1, 0xba, 0x63, 0xbe,
  0xe8, 0xcc, 0x87, 0x3d, 0x00, 0x9e, 0x6f, 0xbd, 0x2e, 0xfe, 0x54, 0x3e,
  0xd8, 0xe3, 0x03, 0xbe, 0x3c, 0x38, 0xfb, 0x3d, 0xb2, 0x31, 0x9f, 0xbe,
  0xd0, 0x77, 0x20, 0xbd, 0x95, 0x40, 0xb7, 0xbe, 0xc4, 0x42, 0x1c, 0xbe,
  0x90, 0xdc, 0xe4, 0xbd, 0xd0, 0xbc, 0xf9, 0x3c, 0xe8, 0x5e, 0x26, 0xbd,
  0x09, 0xdf, 0x88, 0xbe, 0x04, 0x5f, 0xe5, 0x3d, 0x10, 0x79, 0x35, 0xbe,
  0x3f, 0x64, 0x07, 0x3f, 0x2f, 0x87, 0x8a, 0x3e, 0x2c, 0xf4, 0xe1, 0x3e,
  0xd5, 0x37, 0xc4, 0x3e, 0xdc, 0xb1, 0x9e, 0x3d, 0xec, 0xf4, 0xe1, 0xbd,
  0x72, 0xe1, 0xd8, 0xbe, 0x27, 0x11, 0x7f, 0xbe, 0x26, 0x46, 0xba, 0xbe,
  0x2d, 0xd0, 0xd6, 0x3e, 0x6c, 0x36, 0xbd, 0xbd, 0x24, 0xb8, 0x90, 0xbd,
  0xbc, 0x33, 0x92, 0x3d, 0xd4, 0x83, 0xb0, 0x3e, 0x69, 0xe6, 0xe6, 0xbe,
  0x82, 0x5f, 0xd0, 0xbd, 0xd6, 0x9d, 0x1e, 0xbf, 0x88, 0x2f, 0x99, 0xbd,
  0x01, 0xc1, 0xe3, 0xbe, 0x1b, 0x67, 0xd7, 0x3e, 0xad, 0x17, 0xa0, 0xbe,
  0x84, 0x41, 0xd6, 0xbe, 0x5f, 0x4d, 0xb0, 0x3e, 0x5c, 0x34, 0x80, 0xbe,
  0xd3, 0xee, 0xc9, 0x3c, 0xd9, 0x93, 0x89, 0x3e, 0xae, 0xab, 0xbb, 0xbe,
  0xe6, 0x04, 0xca, 0xbe, 0x64, 0x63, 0x76, 0xbe, 0x2e, 0x40, 0x80, 0xbf,
  0x1f, 0xa7, 0x8e, 0x3e, 0x00, 0x00, 0x00, 0x00, 0x46, 0xff, 0xff, 0xff,
  0x04, 0x00, 0x00, 0x00, 0x40, 0x00, 0x00, 0x00, 0x48, 0xf9, 0x69, 0x3e,
  0xb5, 0x60, 0xe7, 0x3e, 0x98, 0x18, 0x64, 0xbe, 0x6f, 0x1c, 0x01, 0x3f,
  0x34, 0x44, 0xf6, 0x3e, 0x10, 0xca, 0xf2, 0xbd, 0x52, 0xc9, 0x05, 0xbe,
  0xa5, 0x39, 0x44, 0x3e, 0xe1, 0x90, 0x0f, 0xbf, 0x16, 0x21, 0x1a, 0x3f,
  0xd2, 0xc8, 0xbe, 0xbe, 0xd0, 0x16, 0x82, 0xbd, 0x30, 0x89, 0x43, 0xbd,
  0xf6, 0x1d, 0xf3, 0xbe, 0x02, 0xb1, 0x36, 0x3e, 0xbb, 0x12, 0x8f, 0x3d,
  0x00, 0x00, 0x00, 0x00, 0x96, 0xff, 0xff, 0xff, 0x04, 0x00, 0x00, 0x00,
  0x04, 0x00, 0x00, 0x00, 0x12, 0xea, 0x66, 0xbe, 0xa6, 0xff, 0xff, 0xff,
  0x04, 0x00, 0x00, 0x00, 0x40, 0x00, 0x00, 0x00, 0x00, 0x00, 0x00, 0x00,
  0x39, 0x7d, 0x10, 0x3f, 0x00, 0xfc, 0xf2, 0x36, 0x00, 0x00, 0x00, 0x00,
  0x00, 0x00, 0x00, 0x00, 0x15, 0x97, 0xa9, 0xbe, 0x4f, 0x2a, 0x87, 0x3e,
  0x57, 0xb4, 0xbd, 0xbd, 0x07, 0xa5, 0x19, 0xbe, 0x00, 0x00, 0x00, 0x00,
  0x61, 0x66, 0xfc, 0xbd, 0x00, 0x00, 0x00, 0x00, 0x00, 0x00, 0x00, 0x00,
  0x00, 0x00, 0x00, 0x00, 0x0a, 0x8e, 0xe0, 0xbe, 0x33, 0x1f, 0x89, 0x3e,
  0x00, 0x00, 0x00, 0x00, 0x00, 0x00, 0x00, 0x00, 0x00, 0x00, 0x00, 0x00,
  0x00, 0x00, 0x06, 0x00, 0x08, 0x00, 0x04, 0x00, 0x06, 0x00, 0x00, 0x00,
  0x04, 0x00, 0x00, 0x00, 0x40, 0x00, 0x00, 0x00, 0x92, 0x2c, 0x0a, 0x3e,
  0x7a, 0x5c, 0x05, 0xbf, 0x00, 0x00, 0x00, 0x00, 0x08, 0x19, 0x26, 0xbf,
  0xf0, 0xef, 0xa4, 0xbd, 0x00, 0x00, 0x00, 0x00, 0x00, 0x00, 0x00, 0x00,
  0x17, 0x5f, 0x40, 0x3f, 0x00, 0x00, 0x00, 0x00, 0xa2, 0xd3, 0xa7, 0x3d,
  0x00, 0x00, 0x00, 0x00, 0x00, 0x00, 0x00, 0x00, 0x00, 0x00, 0x00, 0x00,
  0x00, 0x00, 0x00, 0x00, 0x8f, 0xca, 0xf2, 0xbe, 0x0d, 0xa9, 0x67, 0x3e,
  0x00, 0x00, 0x00, 0x00, 0x00, 0x00, 0x00, 0x00, 0x00, 0x00, 0x00, 0x00,
  0x24, 0xfb, 0xff, 0xff, 0x00, 0x00, 0x00, 0x00, 0x00, 0x00, 0x00, 0x00,
  0x00, 0x00, 0x00, 0x00, 0x34, 0xfb, 0xff, 0xff, 0x00, 0x00, 0x00, 0x00,
  0x00, 0x00, 0x00, 0x00, 0x0f, 0x00, 0x00, 0x00, 0x4d, 0x4c, 0x49, 0x52,
  0x20, 0x43, 0x6f, 0x6e, 0x76, 0x65, 0x72, 0x74, 0x65, 0x64, 0x2e, 0x00,
  0x01, 0x00, 0x00, 0x00, 0x14, 0x00, 0x00, 0x00, 0x00, 0x00, 0x0e, 0x00,
  0x18, 0x00, 0x04, 0x00, 0x08, 0x00, 0x0c, 0x00, 0x10, 0x00, 0x14, 0x00,
  0x0e, 0x00, 0x00, 0x00, 0x00, 0x01, 0x00, 0x00, 0xf4, 0x00, 0x00, 0x00,
  0xe8, 0x00, 0x00, 0x00, 0x14, 0x00, 0x00, 0x00, 0x04, 0x00, 0x00, 0x00,
  0x04, 0x00, 0x00, 0x00, 0x6d, 0x61, 0x69, 0x6e, 0x00, 0x00, 0x00, 0x00,
  0x03, 0x00, 0x00, 0x00, 0x90, 0x00, 0x00, 0x00, 0x48, 0x00, 0x00, 0x00,
  0x04, 0x00, 0x00, 0x00, 0xce, 0xff, 0xff, 0xff, 0x00, 0x00, 0x00, 0x08,
  0x18, 0x00, 0x00, 0x00, 0x0c, 0x00, 0x00, 0x00, 0x04, 0x00, 0x00, 0x00,
  0xb4, 0xfb, 0xff, 0xff, 0x01, 0x00, 0x00, 0x00, 0x09, 0x00, 0x00, 0x00,
  0x03, 0x00, 0x00, 0x00, 0x08, 0x00, 0x00, 0x00, 0x06, 0x00, 0x00, 0x00,
  0x03, 0x00, 0x00, 0x00, 0x00, 0x00, 0x0e, 0x00, 0x14, 0x00, 0x00, 0x00,
  0x08, 0x00, 0x0c, 0x00, 0x07, 0x00, 0x10, 0x00, 0x0e, 0x00, 0x00, 0x00,
  0x00, 0x00, 0x00, 0x08, 0x1c, 0x00, 0x00, 0x00, 0x10, 0x00, 0x00, 0x00,
  0x04, 0x00, 0x00, 0x00, 0xba, 0xff, 0xff, 0xff, 0x00, 0x00, 0x00, 0x01,
  0x01, 0x00, 0x00, 0x00, 0x08, 0x00, 0x00, 0x00, 0x03, 0x00, 0x00, 0x00,
  0x07, 0x00, 0x00, 0x00, 0x05, 0x00, 0x00, 0x00, 0x02, 0x00, 0x00, 0x00,
  0x00, 0x00, 0x0e, 0x00, 0x16, 0x00, 0x00, 0x00, 0x08, 0x00, 0x0c, 0x00,
  0x07, 0x00, 0x10, 0x00, 0x0e, 0x00, 0x00, 0x00, 0x00, 0x00, 0x00, 0x08,
  0x24, 0x00, 0x00, 0x00, 0x18, 0x00, 0x00, 0x00, 0x0c, 0x00, 0x00, 0x00,
  0x00, 0x00, 0x06, 0x00, 0x08, 0x00, 0x07, 0x00, 0x06, 0x00, 0x00, 0x00,
  0x00, 0x00, 0x00, 0x01, 0x01, 0x00, 0x00, 0x00, 0x07, 0x00, 0x00, 0x00,
  0x03, 0x00, 0x00, 0x00, 0x00, 0x00, 0x00, 0x00, 0x04, 0x00, 0x00, 0x00,
  0x01, 0x00, 0x00, 0x00, 0x01, 0x00, 0x00, 0x00, 0x09, 0x00, 0x00, 0x00,
  0x01, 0x00, 0x00, 0x00, 0x00, 0x00, 0x00, 0x00, 0x0a, 0x00, 0x00, 0x00,
  0x68, 0x03, 0x00, 0x00, 0xf8, 0x02, 0x00, 0x00, 0x8c, 0x02, 0x00, 0x00,
  0x30, 0x02, 0x00, 0x00, 0xec, 0x01, 0x00, 0x00, 0xa4, 0x01, 0x00, 0x00,
  0x5c, 0x01, 0x00, 0x00, 0xd8, 0x00, 0x00, 0x00, 0x4c, 0x00, 0x00, 0x00,
  0x04, 0x00, 0x00, 0x00, 0xd4, 0xfc, 0xff, 0xff, 0x34, 0x00, 0x00, 0x00,
  0x0a, 0x00, 0x00, 0x00, 0x1c, 0x00, 0x00, 0x00, 0x14, 0x00, 0x00, 0x00,
  0x04, 0x00, 0x00, 0x00, 0x02, 0x00, 0x00, 0x00, 0xff, 0xff, 0xff, 0xff,
  0x01, 0x00, 0x00, 0x00, 0xc0, 0xfc, 0xff, 0xff, 0x08, 0x00, 0x00, 0x00,
  0x49, 0x64, 0x65, 0x6e, 0x74, 0x69, 0x74, 0x79, 0x00, 0x00, 0x00, 0x00,
  0x02, 0x00, 0x00, 0x00, 0x01, 0x00, 0x00, 0x00, 0x01, 0x00, 0x00, 0x00,
  0x18, 0xfd, 0xff, 0xff, 0x78, 0x00, 0x00, 0x00, 0x09, 0x00, 0x00, 0x00,
  0x1c, 0x00, 0x00, 0x00, 0x14, 0x00, 0x00, 0x00, 0x04, 0x00, 0x00, 0x00,
  0x02, 0x00, 0x00, 0x00, 0xff, 0xff, 0xff, 0xff, 0x10, 0x00, 0x00, 0x00,
  0x04, 0xfd, 0xff, 0xff, 0x4c, 0x00, 0x00, 0x00, 0x73, 0x65, 0x71, 0x75,
  0x65, 0x6e, 0x74, 0x69, 0x61, 0x6c, 0x2f, 0x64, 0x65, 0x6e, 0x73, 0x65,
  0x5f, 0x31, 0x2f, 0x4d, 0x61, 0x74, 0x4d, 0x75, 0x6c, 0x3b, 0x73, 0x65,
  0x71, 0x75, 0x65, 0x6e, 0x74, 0x69, 0x61, 0x6c, 0x2f, 0x64, 0x65, 0x6e,
  0x73, 0x65, 0x5f, 0x31, 0x2f, 0x42, 0x69, 0x61, 0x73, 0x41, 0x64, 0x64,
  0x3b, 0x73, 0x65, 0x71, 0x75, 0x65, 0x6e, 0x74, 0x69, 0x61, 0x6c, 0x2f,
  0x64, 0x65, 0x6e, 0x73, 0x65, 0x5f, 0x31, 0x2f, 0x52, 0x65, 0x6c, 0x75,
  0x00, 0x00, 0x00, 0x00, 0x02, 0x00, 0x00, 0x00, 0x01, 0x00, 0x00, 0x00,
  0x10, 0x00, 0x00, 0x00, 0xa0, 0xfd, 0xff, 0xff, 0x70, 0x00, 0x00, 0x00,
  0x08, 0x00, 0x00, 0x00, 0x1c, 0x00, 0x00, 0x00, 0x14, 0x00, 0x00, 0x00,
  0x04, 0x00, 0x00, 0x00, 0x02, 0x00, 0x00, 0x00, 0xff, 0xff, 0xff, 0xff,
  0x10, 0x00, 0x00, 0x00, 0x8c, 0xfd, 0xff, 0xff, 0x46, 0x00, 0x00, 0x00,
  0x73, 0x65, 0x71, 0x75, 0x65, 0x6e, 0x74, 0x69, 0x61, 0x6c, 0x2f, 0x64,
  0x65, 0x6e, 0x73, 0x65, 0x2f, 0x4d, 0x61, 0x74, 0x4d, 0x75, 0x6c, 0x3b,
  0x73, 0x65, 0x71, 0x75, 0x65, 0x6e, 0x74, 0x69, 0x61, 0x6c, 0x2f, 0x64,
  0x65, 0x6e, 0x73, 0x65, 0x2f, 0x42, 0x69, 0x61, 0x73, 0x41, 0x64, 0x64,
  0x3b, 0x73, 0x65, 0x71, 0x75, 0x65, 0x6e, 0x74, 0x69, 0x61, 0x6c, 0x2f,
  0x64, 0x65, 0x6e, 0x73, 0x65, 0x2f, 0x52, 0x65, 0x6c, 0x75, 0x00, 0x00,
  0x02, 0x00, 0x00, 0x00, 0x01, 0x00, 0x00, 0x00, 0x10, 0x00, 0x00, 0x00,
  0x86, 0xfe, 0xff, 0xff, 0x34, 0x00, 0x00, 0x00, 0x07, 0x00, 0x00, 0x00,
  0x0c, 0x00, 0x00, 0x00, 0x04, 0x00, 0x00, 0x00, 0xfc, 0xfd, 0xff, 0xff,
  0x19, 0x00, 0x00, 0x00, 0x73, 0x65, 0x71, 0x75, 0x65, 0x6e, 0x74, 0x69,
  0x61, 0x6c, 0x2f, 0x64, 0x65, 0x6e, 0x73, 0x65, 0x5f, 0x32, 0x2f, 0x4d,
  0x61, 0x74, 0x4d, 0x75, 0x6c, 0x00, 0x00, 0x00, 0x02, 0x00, 0x00, 0x00,
  0x01, 0x00, 0x00, 0x00, 0x10, 0x00, 0x00, 0x00, 0xca, 0xfe, 0xff, 0xff,
  0x34, 0x00, 0x00, 0x00, 0x06, 0x00, 0x00, 0x00, 0x0c, 0x00, 0x00, 0x00,
  0x04, 0x00, 0x00, 0x00, 0x40, 0xfe, 0xff, 0xff, 0x19, 0x00, 0x00, 0x00,
  0x73, 0x65, 0x71, 0x75, 0x65, 0x6e, 0x74, 0x69, 0x61, 0x6c, 0x2f, 0x64,
  0x65, 0x6e, 0x73, 0x65, 0x5f, 0x31, 0x2f, 0x4d, 0x61, 0x74, 0x4d, 0x75,
  0x6c, 0x00, 0x00, 0x00, 0x02, 0x00, 0x00, 0x00, 0x10, 0x00, 0x00, 0x00,
  0x10, 0x00, 0x00, 0x00, 0x0e, 0xff, 0xff, 0xff, 0x30, 0x00, 0x00, 0x00,
  0x05, 0x00, 0x00, 0x00, 0x0c, 0x00, 0x00, 0x00, 0x04, 0x00, 0x00, 0x00,
  0x84, 0xfe, 0xff, 0xff, 0x17, 0x00, 0x00, 0x00, 0x73, 0x65, 0x71, 0x75,
  0x65, 0x6e, 0x74, 0x69, 0x61, 0x6c, 0x2f, 0x64, 0x65, 0x6e, 0x73, 0x65,
  0x2f, 0x4d, 0x61, 0x74, 0x4d, 0x75, 0x6c, 0x00, 0x02, 0x00, 0x00, 0x00,
  0x10, 0x00, 0x00, 0x00, 0x01, 0x00, 0x00, 0x00, 0x4e, 0xff, 0xff, 0xff,
  0x4c, 0x00, 0x00, 0x00, 0x04, 0x00, 0x00, 0x00, 0x0c, 0x00, 0x00, 0x00,
  0x04, 0x00, 0x00, 0x00, 0xc4, 0xfe, 0xff, 0xff, 0x32, 0x00, 0x00, 0x00,
  0x73, 0x65, 0x71, 0x75, 0x65, 0x6e, 0x74, 0x69, 0x61, 0x6c, 0x2f, 0x64,
  0x65, 0x6e, 0x73, 0x65, 0x5f, 0x32, 0x2f, 0x42, 0x69, 0x61, 0x73, 0x41,
  0x64, 0x64, 0x2f, 0x52, 0x65, 0x61, 0x64, 0x56, 0x61, 0x72, 0x69, 0x61,
  0x62, 0x6c, 0x65, 0x4f, 0x70, 0x2f, 0x72, 0x65, 0x73, 0x6f, 0x75, 0x72,
  0x63, 0x65, 0x00, 0x00, 0x01, 0x00, 0x00, 0x00, 0x01, 0x00, 0x00, 0x00,
  0xa6, 0xff, 0xff, 0xff, 0x4c, 0x00, 0x00, 0x00, 0x03, 0x00, 0x00, 0x00,
  0x0c, 0x00, 0x00, 0x00, 0x04, 0x00, 0x00, 0x00, 0x1c, 0xff, 0xff, 0xff,
  0x32, 0x00, 0x00, 0x00, 0x73, 0x65, 0x71, 0x75, 0x65, 0x6e, 0x74, 0x69,
  0x61, 0x6c, 0x2f, 0x64, 0x65, 0x6e, 0x73, 0x65, 0x5f, 0x31, 0x2f, 0x42,
  0x69, 0x61, 0x73, 0x41, 0x64, 0x64, 0x2f, 0x52, 0x65, 0x61, 0x64, 0x56,
  0x61, 0x72, 0x69, 0x61, 0x62, 0x6c, 0x65, 0x4f, 0x70, 0x2f, 0x72, 0x65,
  0x73, 0x6f, 0x75, 0x72, 0x63, 0x65, 0x00, 0x00, 0x01, 0x00, 0x00, 0x00,
  0x10, 0x00, 0x00, 0x00, 0x00, 0x00, 0x0e, 0x00, 0x14, 0x00, 0x04, 0x00,
  0x00, 0x00, 0x08, 0x00, 0x0c, 0x00, 0x10, 0x00, 0x0e, 0x00, 0x00, 0x00,
  0x4c, 0x00, 0x00, 0x00, 0x02, 0x00, 0x00, 0x00, 0x0c, 0x00, 0x00, 0x00,
  0x04, 0x00, 0x00, 0x00, 0x84, 0xff, 0xff, 0xff, 0x30, 0x00, 0x00, 0x00,
  0x73, 0x65, 0x71, 0x75, 0x65, 0x6e, 0x74, 0x69, 0x61, 0x6c, 0x2f, 0x64,
  0x65, 0x6e, 0x73, 0x65, 0x2f, 0x42, 0x69, 0x61, 0x73, 0x41, 0x64, 0x64,
  0x2f, 0x52, 0x65, 0x61, 0x64, 0x56, 0x61, 0x72, 0x69, 0x61, 0x62, 0x6c,
  0x65, 0x4f, 0x70, 0x2f, 0x72, 0x65, 0x73, 0x6f, 0x75, 0x72, 0x63, 0x65,
  0x00, 0x00, 0x00, 0x00, 0x01, 0x00, 0x00, 0x00, 0x10, 0x00, 0x00, 0x00,
  0x14, 0x00, 0x18, 0x00, 0x04, 0x00, 0x00, 0x00, 0x08, 0x00, 0x0c, 0x00,
  0x10, 0x00, 0x00, 0x00, 0x00, 0x00, 0x14, 0x00, 0x14, 0x00, 0x00, 0x00,
  0x38, 0x00, 0x00, 0x00, 0x01, 0x00, 0x00, 0x00, 0x20, 0x00, 0x00, 0x00,
  0x18, 0x00, 0x00, 0x00, 0x04, 0x00, 0x00, 0x00, 0x02, 0x00, 0x00, 0x00,
  0xff, 0xff, 0xff, 0xff, 0x01, 0x00, 0x00, 0x00, 0x04, 0x00, 0x04, 0x00,
  0x04, 0x00, 0x00, 0x00, 0x0b, 0x00, 0x00, 0x00, 0x64, 0x65, 0x6e, 0x73,
  0x65, 0x5f, 0x69, 0x6e, 0x70, 0x75, 0x74, 0x00, 0x02, 0x00, 0x00, 0x00,
  0x01, 0x00, 0x00, 0x00, 0x01, 0x00, 0x00, 0x00, 0x01, 0x00, 0x00, 0x00,
  0x10, 0x00, 0x00, 0x00, 0x0c, 0x00, 0x10, 0x00, 0x07, 0x00, 0x00, 0x00,
  0x08, 0x00, 0x0c, 0x00, 0x0c, 0x00, 0x00, 0x00, 0x00, 0x00, 0x00, 0x09,
  0x09, 0x00, 0x00, 0x00, 0x09, 0x00, 0x00, 0x00
};

#endif //SINE_MODEL_H